{"<s>":0,"<pad>":1,"</s>":2,"<unk>":3,"<mask>":4,"!":5,"\"":6,"#":7,"$":8,"%":9,"&":10,"'":11,"(":12,")":13,"*":14,"+":15,",":16,"-":17,".":18,"/":19,"0":20,"1":21,"2":22,"3":23,"4":24,"5":25,"6":26,"7":27,"8":28,"9":29,":":30,";":31,"<":32,"=":33,">":34,"?":35,"@":36,"A":37,"B":38,"C":39,"D":40,"E":41,"F":42,"G":43,"H":44,"I":45,"J":46,"K":47,"L":48,"M":49,"N":50,"O":51,"P":52,"Q":53,"R":54,"S":55,"T":56,"U":57,"V":58,"W":59,"X":60,"Y":61,"Z":62,"[":63,"\\":64,"]":65,"^":66,"_":67,"`":68,"a":69,"b":70,"c":71,"d":72,"e":73,"f":74,"g":75,"h":76,"i":77,"j":78,"k":79,"l":80,"m":81,"n":82,"o":83,"p":84,"q":85,"r":86,"s":87,"t":88,"u":89,"v":90,"w":91,"x":92,"y":93,"z":94,"{":95,"|":96,"}":97,"~":98,"¡":99,"¢":100,"£":101,"¤":102,"¥":103,"¦":104,"§":105,"¨":106,"©":107,"ª":108,"«":109,"¬":110,"®":111,"¯":112,"°":113,"±":114,"²":115,"³":116,"´":117,"µ":118,"¶":119,"·":120,"¸":121,"¹":122,"º":123,"»":124,"¼":125,"½":126,"¾":127,"¿":128,"À":129,"Á":130,"Â":131,"Ã":132,"Ä":133,"Å":134,"Æ":135,"Ç":136,"È":137,"É":138,"Ê":139,"Ë":140,"Ì":141,"Í":142,"Î":143,"Ï":144,"Ð":145,"Ñ":146,"Ò":147,"Ó":148,"Ô":149,"Õ":150,"Ö":151,"×":152,"Ø":153,"Ù":154,"Ú":155,"Û":156,"Ü":157,"Ý":158,"Þ":159,"ß":160,"à":161,"á":162,"â":163,"ã":164,"ä":165,"å":166,"æ":167,"ç":168,"è":169,"é":170,"ê":171,"ë":172,"ì":173,"í":174,"î":175,"ï":176,"ð":177,"ñ":178,"ò":179,"ó":180,"ô":181,"õ":182,"ö":183,"÷":184,"ø":185,"ù":186,"ú":187,"û":188,"ü":189,"ý":190,"þ":191,"ÿ":192,"Ā":193,"ā":194,"Ă":195,"ă":196,"Ą":197,"ą":198,"Ć":199,"ć":200,"Ĉ":201,"ĉ":202,"Ċ":203,"ċ":204,"Č":205,"č":206,"Ď":207,"ď":208,"Đ":209,"đ":210,"Ē":211,"ē":212,"Ĕ":213,"ĕ":214,"Ė":215,"ė":216,"Ę":217,"ę":218,"Ě":219,"ě":220,"Ĝ":221,"ĝ":222,"Ğ":223,"ğ":224,"Ġ":225,"ġ":226,"Ģ":227,"ģ":228,"Ĥ":229,"ĥ":230,"Ħ":231,"ħ":232,"Ĩ":233,"ĩ":234,"Ī":235,"ī":236,"Ĭ":237,"ĭ":238,"Į":239,"į":240,"İ":241,"ı":242,"Ĳ":243,"ĳ":244,"Ĵ":245,"ĵ":246,"Ķ":247,"ķ":248,"ĸ":249,"Ĺ":250,"ĺ":251,"Ļ":252,"ļ":253,"Ľ":254,"ľ":255,"Ŀ":256,"ŀ":257,"Ł":258,"ł":259,"Ń":260,"la":261,"Ġk":262,"on":263,"Ġla":264,"Ġe":265,"ta":266,"Ġp":267,"Ġd":268,"oj":269,"an":270,"is":271,"aj":272,"er":273,"Ġde":274,"Ġs":275,"en":276,"in":277,"Ġa":278,"or":279,"Ġm":280,"li":281,"ti":282,"as":283,"ar":284,"Ġn":285,"to":286,"re":287,"Ġkaj":288,"ÄĿ":289,"ro":290,"ri":291,"Ġes":292,"te":293,"un":294,"Äī":295,"Ġen":296,"Ġv":297,"ÅŃ":298,"Ġf":299,"ra":300,"om":301,"le":302,"ci":303,"Ġki":304,"tas":305,"lo":306,"Ġal":307,"am":308,"Ġt":309,"al":310,"Ġti":311,"ĠÄī":312,"toj":313,"do":314,"ur":315,"Ġestas":316,"el":317,"ka":318,"es":319,"io":320,"Ġne":321,"Ġi":322,"Ġre":323,"Ġb":324,"tis":325,"Ġin":326,"Ġh":327,"Ġvi":328,"ĠK":329,"ĠL":330,"di":331,"ĠE":332,"ojn":333,"Ġkon":334,"Ġpo":335,"âĢ":336,"ÅĿ":337,"Ġmi":338,"per":339,"Ġpor":340,"taj":341,"ko":342,"Ġli":343,"ĠS":344,"ter":345,"ul":346,"Ġj":347,"Ġg":348,"ig":349,"Ġ(":350,"um":351,"ĠM":352,"uj":353,"Ġan":354,"Ġo":355,"Ġpro":356,"ĠA":357,"da":358,"Ġ1":359,"vi":360,"ĠÄĿ":361,"ran":362,"Ġse":363,"Ġmal":364,"ĠP":365,"us":366,"ks":367,"ĠÄīi":368,"Ġl":369,"ajn":370,"de":371,"Ġke":372,"Ġpri":373,"vo":374,"Ġkun":375,"Ġper":376,"vas":377,"Ġsi":378,"po":379,"ĠT":380,"Ġel":381,"st":382,"Äµ":383,"kon":384,"va":385,"ita":386,"em":387,"ĠLa":388,"tu":389,"ĠÅĿ":390,"co":391,"ing":392,"ton":393,"Ġestis":394,"lan":395,"ru":396,"mo":397,"peran":398,"ĠâĢ":399,"Ġsu":400,"don":401,"zi":402,"ĠN":403,"Ġkom":404,"pe":405,"ĠaÅŃ":406,"tan":407,"ĠB":408,"Ġdi":409,"Ġkiu":410,"Ġ2":411,"os":412,"las":413,"Ġpli":414,"du":415,"ĠD":416,"lu":417,"ĠV":418,"ia":419,"aro":420,"ĠI":421,"Ġte":422,"iÄĿ":423,"Ġun":424,"aÅŃ":425,"ce":426,"Ġkiel":427,"Ġinter":428,"gi":429,"Ġek":430,"Ġpre":431,"kaÅŃ":432,"Ġri":433,"ĠÄ":434,"ĠEs":435,"ve":436,"ren":437,"aci":438,"oni":439,"Ġili":440,"ten":441,"Ġunu":442,"ĠF":443,"ma":444,"La":445,"Ġni":446,"ĠR":447,"ris":448,"eb":449,"Ġtiu":450,"go":451,"tra":452,"il":453,"Ġali":454,"Ġfor":455,"ĠG":456,"uz":457,"ek":458,"Ġsed":459,"Ġsen":460,"dis":461,"Ġdis":462,"ĠEsperan":463,"ki":464,"ino":465,"Ġmon":466,"ĠÄīe":467,"Ġha":468,"man":469,"Ġ\"":470,"ĠJ":471,"pon":472,"ol":473,"mi":474,"fi":475,"ga":476,"Ġc":477,"ver":478,"ĠH":479,"00":480,"tr":481,"pa":482,"vis":483,"ĠÄĿi":484,"taÅŃ":485,"me":486,"Ġsur":487,"Ġoni":488,"Ġver":489,"..":490,"tri":491,"Ġfar":492,"ĠU":493,"Ġkiuj":494,"jo":495,"fer":496,"bo":497,"Ġ19":498,"ni":499,"Ġka":500,"tojn":501,"tro":502,"doj":503,"ala":504,"diÄī":505,"ĠC":506,"ven":507,"men":508,"tor":509,"Ġling":510,"ÄĿo":511,"Ġpar":512,"Ġap":513,"Ġar":514,"pi":515,"aÄµ":516,"ble":517,"ed":518,"Ġ-":519,"Ġta":520,"Ġdu":521,"lej":522,"Ġpa":523,"ĠankaÅŃ":524,"Ġor":525,"ĠlaÅŃ":526,"Ġtra":527,"Ġuz":528,"Ġpovas":529,"ono":530,"van":531,"loj":532,"Ġtio":533,"so":534,"pren":535,"zo":536,"Ġda":537,"ku":538,"gan":539,"ĠEsperanto":540,"cio":541,"Ġno":542,"ĠMi":543,"Ġplej":544,"Ġnom":545,"bor":546,"Ġtu":547,"ĠVi":548,"Ġnur":549,"ĠÄĪ":550,"ata":551,"Ġhom":552,"dan":553,"for":554,"Ġkons":555,"Ġmul":556,"ado":557,"Ġjar":558,"Ġlo":559,"ĠO":560,"kaj":561,"Ġ3":562,"Ġsub":563,"kti":564,"Ġbon":565,"no":566,"Ġtro":567,"Ġmem":568,"Ġekz":569,"gis":570,").":571,"ke":572,"bro":573,"ÄĿis":574,"ĠÅĿi":575,"lon":576,"Ġdum":577,"den":578,"koj":579,"ero":580,"ĠLi":581,"kto":582,"Ġgran":583,"Ġra":584,"laj":585,"Ġle":586,"ĠEn":587,"ara":588,"Ġpost":589,"ĠantaÅŃ":590,"Ġres":591,"ub":592,"roj":593,"ern":594,"das":595,"âĢĿ":596,"Ġeks":597,"Ġme":598,"gra":599,"uloj":600,"kaz":601,"ge":602,"Ġman":603,"res":604,"bu":605,"kri":606,"Ġmin":607,"mp":608,"kis":609,"vers":610,"Ġma":611,"mon":612,"Ġpl":613,"ras":614,"Ġven":615,"ilo":616,"),":617,"ch":618,"ĠTi":619,"Ġsam":620,"ca":621,"mes":622,"ron":623,"01":624,"eni":625,"eblas":626,"kondiÄī":627,"Ġtre":628,"Ġak":629,"Ġlan":630,"ber":631,"Ġhavas":632,"ab":633,"con":634,"Ġnun":635,"ĠÄīiuj":636,"igi":637,"voj":638,"Ġ:":639,"sta":640,"Ġest":641,"lio":642,"ento":643,"ej":644,"Ġokaz":645,"stru":646,"Ġmo":647,"pan":648,"si":649,"aÄµo":650,"Ġur":651,"Ġjam":652,"Ġsci":653,"oro":654,"Ġkiam":655,"Ġesperan":656,"Ġso":657,"lik":658,"rin":659,"daj":660,"Ġol":661,"ÄĿas":662,"Ġsin":663,"ĠNe":664,"Ġeble":665,"Ġgra":666,"ces":667,"ĠKom":668,"ĠÄīar":669,"ĠâĢĶ":670,"ĠÂ":671,"Ġsta":672,"ľi":673,"Ġtiuj":674,"iÄĿis":675,"Ġdo":676,"lin":677,"Ġko":678,"tiko":679,"tajn":680,"ĠâĢľ":681,"Ġku":682,"Ġsia":683,"ĠAn":684,"Ġlabor":685,"Ġkontra":686,"raj":687,"Ġaldon":688,"ĠÄĿis":689,"Ġtem":690,"por":691,"tita":692,"Ġje":693,"kta":694,"ĠÄĿin":695,"tem":696,"Ġlingvo":697,"...":698,"Ġbe":699,"par":700,"Ġteks":701,"Ġkre":702,"Ġvor":703,"isto":704,"Ġesti":705,"Ġkomen":706,"gas":707,"tribu":708,"za":709,"ĠIn":710,"ulo":711,"Ġvo":712,"Ġser":713,"Ġ201":714,"ĠKaj":715,"tur":716,"vaj":717,"Ġaliaj":718,"Ġmor":719,"pu":720,"Ġpen":721,"ha":722,"ze":723,"Ġsek":724,"Ġfa":725,"ksi":726,"pro":727,"Ġpermes":728,"Ġkel":729,"ante":730,"amen":731,"ï¿":732,"krib":733,"ï¿½":734,"ina":735,"ĠkontraÅŃ":736,"ĠÄīef":737,"zon":738,"pre":739,"Ġneni":740,"ĠKi":741,"tos":742,"kci":743,"Ġfi":744,"ano":745,"gar":746,"moj":747,"Ġkomun":748,"Ġtran":749,"Ġparto":750,"kor":751,"Ġtri":752,"son":753,"Ġparo":754,"Ġ[":755,"Ġspe":756,"Ġjaroj":757,"ba":758,"umo":759,"anoj":760,"Ġfin":761,"Ġtie":762,"ite":763,"ĠeÄī":764,"ale":765,"Ġtiel":766,"erman":767,"antoj":768,"Ġam":769,"anta":770,"Ġter":771,"na":772,"Ġpos":773,"tre":774,"ejo":775,"Äµo":776,"pen":777,"Ġele":778,"uzi":779,"Ġ200":780,"et":781,"Ġ4":782,"vin":783,"ĠSed":784,"Ġkor":785,"goj":786,"tin":787,"ple":788,"Ġof":789,"Ġdeta":790,"von":791,"ĠâĢĵ":792,"acia":793,"Ġdispon":794,"ĠW":795,"Ġmia":796,"ĠSe":797,"ĠkondiÄī":798,"Ġsian":799,"bon":800,"cen":801,"Ġteksto":802,"ĠÄīiu":803,"Ġplen":804,"Ġro":805,"Ä¥":806,"zen":807,"istoj":808,"kul":809,"coj":810,"lando":811,"Ġba":812,"Ġdevas":813,"ĠKomun":814,"ĠÅ":815,"rea":816,"ÄĿi":817,"ling":818,"ĠKon":819,"Ġhomoj":820,"Ġci":821,"Ġmili":822,"Ġeb":823,"Ġ5":824,"Ġinf":825,"ali":826,"Ġekzis":827,"Ġmar":828,"var":829,"En":830,"dio":831,"dap":832,"Ġplu":833,"ĠPo":834,"ĠNi":835,"ĠkondiÄīoj":836,"ir":837,"kas":838,"Ġunua":839,"ÅŃro":840,"Äµoj":841,"ĠÄľi":842,"pl":843,"Ġkiun":844,"ĠZ":845,"Ġhis":846,"min":847,"turo":848,"ÄĿoj":849,"gani":850,"cep":851,"Äīe":852,"Ġkie":853,"Ġ18":854,"ener":855,"Ġpermesilo":856,"kom":857,"ĠinK":858,"gu":859,"Ġdetaloj":860,"Ġaper":861,"Ġtradu":862,"ĠVidu":863,"Ġdon":864,"Ġsig":865,"it":866,"volu":867,"ho":868,"Ġiom":869,"Ġ|":870,"Ġurbo":871,"Ġaplik":872,"igis":873,"ismo":874,"Ġpas":875,"Ġmultaj":876,"Ġdivers":877,"kan":878,"Sam":879,"ĠÂ«":880,"Ġtiun":881,"oje":882,"Ġlia":883,"Ġkio":884,"Ġpe":885,"Ġlin":886,"der":887,"pri":888,"Ġartiko":889,"ĠKrea":890,"ĠKomunaÄµo":891,"tribuite":892,"ting":893,"Ġnia":894,"taro":895,"kondiÄīe":896,"ud":897,"ĠMar":898,"omo":899,"Ġinfor":900,"Ġtrans":901,"Ġgranda":902,"Ġapar":903,"daptita":904,"Ġhel":905,"eo":906,"ier":907,"Ġjun":908,"Ġfon":909,"Ġfra":910,"Ġaldonaj":911,"ĠAtribuite":912,"SamkondiÄīe":913,"kondiÄīojn":914,"Ġdisponeblas":915,"tio":916,"Ġcer":917,"ĠNea":918,"kte":919,"ĠuzkondiÄīojn":920,"gio":921,"ĠNeadaptita":922,"Ġaplikeblas":923,"Ġna":924,"Ġmals":925,"Ġtrovi":926,"gon":927,"Ġkan":928,"Ġkompren":929,"cia":930,"Ġkla":931,"pli":932,"Ġjaro":933,"tern":934,"Ġafer":935,"Ġja":936,"Ġce":937,"eto":938,"åĮ":939,"ç¤":940,"Ġankor":941,"ç¤¼":942,"cis":943,"åĮħ":944,"Ġmondo":945,"ç¤¼åĮħ":946,"Ġtion":947,"âĢ¦":948,"ç¤¼åĮħç¤¼åĮħ":949,"Ġtute":950,"nu":951,"ami":952,"Ġlern":953,"Ġpov":954,"se":955,"Mi":956,"ĠÄīu":957,"ÄĪ":958,"Ġdiris":959,"ini":960,"Ġlon":961,"ĠRe":962,"19":963,"Ġpoli":964,"Ġins":965,"fa":966,"igo":967,"Ġposte":968,"poj":969,"ad":970,"ori":971,"Ġfun":972,"Ġmala":973,"elo":974,"Ġtiam":975,"Â»":976,"Ġju":977,"Ġintern":978,"Ġilin":979,"Ġkul":980,"ÄĿa":981,"Ġvin":982,"Ġrice":983,"Ġvoj":984,"Ġlu":985,"Ã¡":986,"fo":987,"kla":988,"Ġorgani":989,"Ġtamen":990,"Ġpub":991,"hi":992,"tika":993,"Ġren":994,"ĠâĢ¢":995,"ĠAl":996,"Ġiu":997,"ÄĿon":998,"âĢĶ":999,"Ġbone":1000,"Ġestos":1001,"ser":1002,"iÄĿas":1003,"ux":1004,"bi":1005,"Ġang":1006,"Ġaten":1007,"tempe":1008,"eri":1009,"Ġrespon":1010,"ĠankoraÅŃ":1011,"Ġliber":1012,"eco":1013,"Ġkelkaj":1014,"Ġfil":1015,"tp":1016,"Ġvia":1017,"kces":1018,"Ġrila":1019,"lis":1020,"Ġtempo":1021,"Ġskrib":1022,"Ġsuper":1023,"Ġalia":1024,"Ġnova":1025,"ĠÄīir":1026,"rus":1027,"ĠÄĪi":1028,"wa":1029,"ĠÅĿan":1030,"Ġmulte":1031,"Ġdeman":1032,"Ġdan":1033,"ĠMa":1034,"Ġ6":1035,"tistoj":1036,"toro":1037,"eno":1038,"uo":1039,"Ġpartopren":1040,"vos":1041,"dojn":1042,"gran":1043,"Ġsa":1044,"Ġhistor":1045,"Ġprof":1046,"ĠÄīirkaÅŃ":1047,"Ġekzem":1048,"din":1049,"Ġad":1050,"Ġkonstru":1051,"Ġekster":1052,"Ġnor":1053,"ĠÄīiam":1054,"kam":1055,"he":1056,"Ġofte":1057,"Ġekzistas":1058,"Ġinteres":1059,"ĠloÄĿ":1060,"Ġide":1061,"Ġkri":1062,"anto":1063,"Ġsigni":1064,"Ġtuta":1065,"Ġspeci":1066,"Ã©":1067,"gita":1068,"uti":1069,"Ġmen":1070,"ask":1071,"itaj":1072,"bla":1073,"igas":1074,"Ġprogra":1075,"Ġlando":1076,"Ġhavis":1077,"Ġvar":1078,"Ġraj":1079,"ĠÅĿta":1080,"im":1081,"Ġrez":1082,"Ġplan":1083,"Ġpra":1084,"Ġpens":1085,"ĠdaÅŃ":1086,"Ġsan":1087,"Ġpres":1088,"ujo":1089,"Ġperson":1090,"zio":1091,"mis":1092,"Ġprop":1093,"be":1094,"tran":1095,"\".":1096,"reso":1097,"broj":1098,"spe":1099,"ĠPor":1100,"Ġindi":1101,"mas":1102,"ĠFran":1103,"Ġprezen":1104,"Ġsukces":1105,"labor":1106,"vado":1107,"Ġregis":1108,"Ġajn":1109,"Ġinstru":1110,"tigi":1111,"ine":1112,"Äīo":1113,"klu":1114,"Ġcen":1115,"fek":1116,"EA":1117,"acio":1118,"ĠPa":1119,"xi":1120,"ĠÄµ":1121,"igita":1122,"Ġdeci":1123,"Ġ7":1124,"gen":1125,"Ġgru":1126,"Ġvolas":1127,"foje":1128,"Ġkro":1129,"ĠIli":1130,"Ġvol":1131,"mar":1132,"Ġproksi":1133,"teco":1134,"Ġrigar":1135,"Ġpi":1136,"\",":1137,"vor":1138,"âĢľ":1139,"ĠEk":1140,"Ġofi":1141,"alo":1142,"ion":1143,"troj":1144,"ant":1145,"at":1146,"eli":1147,"gres":1148,"Ġkva":1149,"gn":1150,"maj":1151,"aÄµoj":1152,"inta":1153,"Ġ8":1154,"Ġmalf":1155,"Ġsiaj":1156,"Ġkol":1157,"Ġdev":1158,"Ġating":1159,"Ġvivo":1160,"Ġkap":1161,"kur":1162,"Ġnu":1163,"Ġpopo":1164,"Ġokazis":1165,"boj":1166,"kojn":1167,"Ġfari":1168,"Ġsol":1169,"Ġstu":1170,"ĠEÅŃro":1171,"Ġprodu":1172,"Ġbezon":1173,"sono":1174,"iste":1175,"feren":1176,"wave":1177,"tado":1178,"Ġsitu":1179,"Ġnov":1180,"Ġsufi":1181,"mul":1182,"ĠPro":1183,"Ġgerman":1184,"Ġami":1185,"sen":1186,"Ġregi":1187,"umen":1188,"Ġob":1189,"onoj":1190,"Ġkonsi":1191,"ĠAr":1192,"Ġ9":1193,"Ġplur":1194,"Ġdiversaj":1195,"mojn":1196,"zoj":1197,"Ġfran":1198,"ĠMon":1199,"vankam":1200,"Ġrenkon":1201,"Ġfo":1202,"Ġlingvoj":1203,"Ġkam":1204,"Ġop":1205,"alaj":1206,"tura":1207,"uro":1208,"Ġho":1209,"Ġsimp":1210,"ktoj":1211,"ĠÄľ":1212,"Ġneces":1213,"kra":1214,"ama":1215,"iÄĿo":1216,"ĠÄĪu":1217,"cioj":1218,"Ġtur":1219,"paro":1220,"ana":1221,"Ġï¿½":1222,"kajn":1223,"ĠNo":1224,"gado":1225,"kipe":1226,"ĠTio":1227,"danto":1228,"ec":1229,"Ġkur":1230,"greso":1231,"ena":1232,"Ġlandoj":1233,"ĠDio":1234,"Ġves":1235,"zor":1236,"kciden":1237,"Ġdezi":1238,"Ġsignif":1239,"ut":1240,"ĠâĢŀ":1241,"Ġkuti":1242,"lojn":1243,"Ġrapi":1244,"ataj":1245,"tera":1246,"tru":1247,"pas":1248,"eble":1249,"Ġ15":1250,"Ġkion":1251,"lor":1252,"ona":1253,"tejo":1254,"ĠSan":1255,"Ġenha":1256,"ĠPar":1257,"ĠKa":1258,"ere":1259,"ne":1260,"Ġge":1261,"sa":1262,".[":1263,"Ġkiujn":1264,"are":1265,"Ġnek":1266,"iero":1267,"Es":1268,"Ġmuzi":1269,"Ġpreci":1270,"cento":1271,"daÅŃ":1272,"gaj":1273,"Ġ199":1274,"itato":1275,"ler":1276,"ĠÅľ":1277,"ĠTiu":1278,"kado":1279,"ligi":1280,"br":1281,"Ġkies":1282,"rio":1283,"Ġeldon":1284,"tion":1285,"Ġsoci":1286,"caj":1287,"Ġkar":1288,"Ġartikolo":1289,"ĠMe":1290,"Ġkvar":1291,"ĠUEA":1292,"ebla":1293,"Ġvian":1294,"Ġfaris":1295,"Ġflu":1296,"ĠÅĿajn":1297,"Ġsimi":1298,"inio":1299,"ĠDo":1300,"itan":1301,"Ġhomo":1302,"Ġorganiz":1303,"Ġru":1304,"Ġmalpli":1305,"esto":1306,"Ġve":1307,"kt":1308,"Ġ10":1309,"vol":1310,"rojek":1311,"Ġnomo":1312,"ĠÃ":1313,"ĠUnu":1314,"Ġestus":1315,"Ġlas":1316,"Ġ17":1317,"Ġpropon":1318,"dita":1319,"Ġproble":1320,"Ġfami":1321,"Ġakcep":1322,"Ġfaci":1323,"ĠGerman":1324,"ĠDe":1325,"eloj":1326,"embro":1327,"Ġbona":1328,"ĠJa":1329,"ĠSo":1330,"Ġscias":1331,"Ġtia":1332,"Ġuni":1333,"titu":1334,"000":1335,"Äīi":1336,"ĠOni":1337,"tino":1338,"iloj":1339,"Ġtuj":1340,"Ġtut":1341,"KO":1342,"Ġangla":1343,"Ġfunkci":1344,"ĠÄĿener":1345,"Ġed":1346,"Ġpovus":1347,"aloj":1348,"veno":1349,"ĠAÅŃ":1350,"Ġgvi":1351,"ĠLe":1352,"Ġab":1353,"Ki":1354,"ĠJo":1355,"Ġsiajn":1356,"ĠMal":1357,"Ġmalgran":1358,"ĠpreskaÅŃ":1359,"ĠUni":1360,"Ġrakon":1361,"minis":1362,"Ġelek":1363,"amo":1364,"Ġespri":1365,"kso":1366,"ĠTamen":1367,"Ġprezi":1368,"diaÅŃ":1369,"ĠĠ":1370,"Ġkonsider":1371,"ang":1372,"tras":1373,"len":1374,"Ġvizi":1375,"Ġjarcento":1376,"Ġbil":1377,"ula":1378,"Ġorig":1379,"ĠÄĿus":1380,"ĠÄĿia":1381,"ĠPost":1382,"âĢĻ":1383,"kov":1384,"Ġscien":1385,"Ġekde":1386,"Ġties":1387,"Ġpovis":1388,"Ġuzi":1389,"eder":1390,"Ġjen":1391,"Ġto":1392,"ww":1393,"Ġekzemple":1394,"ĠDum":1395,"tisto":1396,"ĠRo":1397,"Ti":1398,"jek":1399,"Ġktp":1400,"mento":1401,"Ġbi":1402,"gx":1403,"Ġblo":1404,"Ġ16":1405,"Ġkole":1406,"Ġ12":1407,"tes":1408,"Ġprin":1409,"Ġdek":1410,"pis":1411,"Ġneniam":1412,"liko":1413,"Ġval":1414,"Ġbata":1415,"Ġfilo":1416,"Ġvir":1417,"teri":1418,"Ġfru":1419,"Ġsiste":1420,"ç¤¼åĮħç¤¼åĮħç¤¼åĮħç¤¼åĮħ":1421,"Ġfer":1422,"Ġ20":1423,"cer":1424,"Ġten":1425,"inoj":1426,"Ġevolu":1427,"Ġkura":1428,"Ġakti":1429,"pab":1430,"cas":1431,"bar":1432,"stataÅŃ":1433,"Ġkres":1434,"Ġoku":1435,"rita":1436,"Äµojn":1437,"vu":1438,"Ġnask":1439,"Ġmona":1440,"ĠtroviÄĿas":1441,"Ġflan":1442,"Ġhej":1443,"Ġpren":1444,"Ġsubten":1445,"tero":1446,"Ġestu":1447,"cion":1448,"majn":1449,"Ġim":1450,"Ġrezul":1451,"Ġpris":1452,"ĠÄĪe":1453,"th":1454,"panio":1455,"tum":1456,"konom":1457,"gus":1458,"tive":1459,"tante":1460,"lika":1461,"eroj":1462,"Ġ14":1463,"Ġtiom":1464,"Ġpu":1465,"Ġuzas":1466,"ÅĿi":1467,"Ġvere":1468,"ĠÅľi":1469,"dek":1470,"fri":1471,"vita":1472,"ĠInter":1473,"ĠSa":1474,"and":1475,"Ġesperanto":1476,"oroj":1477,"18":1478,"dia":1479,"ĠSi":1480,"sio":1481,"Ġspi":1482,"Ġnaci":1483,"uno":1484,"Ġsame":1485,"Ġ.":1486,"bur":1487,"Ġdua":1488,"zis":1489,"Ġ,":1490,"ĠBa":1491,"Ġdisku":1492,"lingva":1493,"Ġesperantistoj":1494,"Ġâ":1495,"elon":1496,"Ġlibro":1497,"ges":1498,"ÃŃ":1499,"Ġopini":1500,"inte":1501,"baÅŃ":1502,"ĠkaÅŃ":1503,"Ġuti":1504,"ĠDi":1505,"Ġpla":1506,"intaj":1507,"Ġaparten":1508,"Ġsper":1509,"Ġ13":1510,"Ġpublik":1511,"ĠJes":1512,"tik":1513,"Äīa":1514,"rek":1515,"Ġ/":1516,"KOKO":1517,"socio":1518,"teg":1519,"iÄĿi":1520,"Ġevi":1521,"lajn":1522,"una":1523,"umi":1524,"Ġinternacia":1525,"Ġprojek":1526,"Ġsama":1527,"antaj":1528,"ora":1529,"Ġdom":1530,"Ġdok":1531,"Ġneniu":1532,"zaÅŃ":1533,"Ġmalfer":1534,"Li":1535,"ĠÄīio":1536,"Ġkvankam":1537,"far":1538,"âĢĿ.":1539,"Ġvortoj":1540,"ÅĿo":1541,"Ġkomunumo":1542,"Ġpatr":1543,"ĠEl":1544,"Ġdif":1545,"dus":1546,"kipedio":1547,"fon":1548,"10":1549,"amenho":1550,"emo":1551,"Ġdiras":1552,"enta":1553,"ĠanstataÅŃ":1554,"ĠUnivers":1555,"Ġnin":1556,"Ġmalfaci":1557,"vio":1558,"ist":1559,"Ġdef":1560,"Ġamas":1561,"ord":1562,"Ġdisvol":1563,"ros":1564,"12":1565,"ck":1566,"Ġ'":1567,"Ġkara":1568,"Ġmaj":1569,"Ġvorto":1570,"Ġinklu":1571,"kisto":1572,"logio":1573,"ĠÄīiujn":1574,"Ġilia":1575,"Ġlingvon":1576,"Ġkondu":1577,"aÄĿ":1578,"Ġrus":1579,"ĠUsono":1580,"ĠCh":1581,"Ã³":1582,"Ġkontro":1583,"Ġstra":1584,"Ġdos":1585,"Ġespl":1586,"vojn":1587,"Ġfare":1588,"ĠSu":1589,"Ġvid":1590,"ume":1591,"nove":1592,"kvi":1593,"lito":1594,"ja":1595,"Ġmod":1596,"Ġvila":1597,"Ġafero":1598,"Ġsep":1599,"Ġvenis":1600,"lita":1601,"Ġrenkonti":1602,"Ġklas":1603,"Ġson":1604,"An":1605,"kton":1606,"mal":1607,"Ġler":1608,"ame":1609,"Ġofici":1610,"Ġkonf":1611,"ĠkvazaÅŃ":1612,"ĠBo":1613,"Ġbo":1614,"ÄĪi":1615,"Ġkomencis":1616,"Ġmis":1617,"].":1618,"Ġgrava":1619,"Ġaperis":1620,"tigis":1621,"logi":1622,"Ġdenove":1623,"Ġeblas":1624,"ĠPer":1625,"âĢĿ,":1626,"ĠLu":1627,"tema":1628,"kita":1629,"Ġaran":1630,"Ġklari":1631,"int":1632,"Ġtago":1633,"run":1634,"Ġpoliti":1635,"titaj":1636,"Ġgrand":1637,"Ġ198":1638,"Ġreg":1639,"Ġlasta":1640,"Ġmemor":1641,"risto":1642,"Ġus":1643,"peranto":1644,"era":1645,"Ġekonom":1646,"los":1647,"leks":1648,"gojn":1649,"estro":1650,"Ġkapab":1651,"alis":1652,"kos":1653,"Ġpatro":1654,"ĠKiam":1655,"ĠMo":1656,"flu":1657,"ĠEsperanton":1658,"Ġlaboro":1659,"tilo":1660,"Ġesper":1661,"ele":1662,"Ġloko":1663,"Ġreda":1664,"tiva":1665,"Ġmian":1666,"Ġrimar":1667,"Ġmalbon":1668,"ĠÅĿa":1669,"can":1670,"Ġden":1671,"Ġbu":1672,"ĠKro":1673,"ĠÂ»":1674,"skul":1675,"ene":1676,"pana":1677,"Ġkune":1678,"kuloj":1679,"gos":1680,"anu":1681,"ĠÄīefe":1682,"Ġ;":1683,"Ġhistorio":1684,"kio":1685,"Ġkunlabor":1686,"Ġtele":1687,"Ġniaj":1688,"ĠKo":1689,"Ġricevis":1690,"Ġeven":1691,"Ġmalno":1692,"Ġtradi":1693,"ioj":1694,"Ġalian":1695,"cojn":1696,"Ġkomple":1697,"ĠVikipedio":1698,"Ġiuj":1699,"pub":1700,"uni":1701,"dos":1702,"ĠRus":1703,"Ġversio":1704,"Ġ0":1705,"ĠZamenho":1706,"ktas":1707,"ĠambaÅŃ":1708,"Ġkrom":1709,"Ġprakti":1710,"Ġbal":1711,"Ġsistemo":1712,"nom":1713,"venis":1714,"Ġprofes":1715,"pozi":1716,"Ġkvin":1717,"Ġviv":1718,"ski":1719,"Ġsim":1720,"lia":1721,"'s":1722,"bron":1723,"Ġapud":1724,"ĠEÅŃropo":1725,"gia":1726,"ajne":1727,"Ġhon":1728,"Ġkal":1729,"Ġriver":1730,"ejoj":1731,"graf":1732,"ĠHo":1733,"paj":1734,"ĠGermanio":1735,"rem":1736,"Ġpoten":1737,"cx":1738,"stan":1739,"ore":1740,"Ġion":1741,"ĠDu":1742,"prezen":1743,"Ġmult":1744,"omen":1745,"Ġga":1746,"Ġ...":1747,"ĠNa":1748,"zas":1749,"In":1750,"Ġori":1751,"ĠÐ":1752,"ĠJu":1753,"Ġgrupo":1754,"ard":1755,"Vi":1756,"cern":1757,"telo":1758,"ĠTo":1759,"Ġkonsis":1760,"ĠIntern":1761,"Se":1762,"Ġrapide":1763,"Ġedz":1764,"urbo":1765,"Ġliaj":1766,"Ġcxi":1767,"ĠPol":1768,"ĠKiel":1769,"Ġ11":1770,"Ġfranca":1771,"Ġiam":1772,"Ġsal":1773,"Äµon":1774,"ĠHis":1775,"Ġvidis":1776,"Ġgrandan":1777,"Ni":1778,"Ġmond":1779,"Ġretejo":1780,"ak":1781,"Ġaki":1782,"Ġpluraj":1783,"Ġalta":1784,"Ġer":1785,"Ġgas":1786,"ES":1787,"Ġunivers":1788,"ĠHa":1789,"ĀĀ":1790,"Ġdor":1791,"ĠRa":1792,"menaÅŃ":1793,"Ġhav":1794,"Ġkomer":1795,"Ġcivi":1796,"Ġregiono":1797,"Ġfaras":1798,"peri":1799,"Ã¼":1800,"Ġdir":1801,"Ġaspe":1802,"ela":1803,"Ġdiri":1804,"Ġtemas":1805,"Ġgrandaj":1806,".\"":1807,"ĠIs":1808,"ĠEtern":1809,"Ġtiujn":1810,"torio":1811,"ĠhodiaÅŃ":1812,"Ġeni":1813,"ĠJen":1814,"tanta":1815,"Po":1816,"sek":1817,"ĠPri":1818,"Ġvidi":1819,"Ġefi":1820,"ĠPe":1821,"Ġmilito":1822,"ĠVer":1823,"ĠTa":1824,"Ġgermana":1825,"Ġkonser":1826,"Ġsignifas":1827,"ĠLaÅŃ":1828,"tono":1829,"Ġkris":1830,"Ġprovi":1831,"aran":1832,"Ġakvo":1833,"Ġokciden":1834,"long":1835,"Ġpun":1836,"Ġbri":1837,"Ġradi":1838,"tiÄĿis":1839,"val":1840,"Ġprecipe":1841,"ĠsufiÄīe":1842,"ĠKar":1843,"eg":1844,"Ġeli":1845,"Ġkelkajn":1846,"Ġret":1847,"jor":1848,"Ġkonata":1849,"kondu":1850,"Ġinten":1851,"Ġaliajn":1852,"ĠvoÄī":1853,"Ġokazas":1854,"plo":1855,"ura":1856,"Ġkomuni":1857,"Ġlitera":1858,"ĠEstas":1859,"tigas":1860,"ĠZamenhof":1861,"adon":1862,"Ġ197":1863,"flan":1864,"Ġrapor":1865,"fe":1866,"Ġon":1867,"Ġmil":1868,"Ġmas":1869,"depen":1870,"joj":1871,"qu":1872,"jara":1873,"parte":1874,"reta":1875,"Ġhun":1876,"Ġvide":1877,"kar":1878,"Ġefek":1879,"Ġmultajn":1880,"ulojn":1881,"gh":1882,"ÅĿan":1883,"vanta":1884,"Ġkoncern":1885,"dado":1886,"Ġinflu":1887,"ĠAm":1888,"Ġ194":1889,"Ġnovaj":1890,"Ġ193":1891,"Ġbezonas":1892,"Ġtemp":1893,"Ġcerte":1894,"ktado":1895,"Ġmez":1896,"Ġmenci":1897,"Ġsemajn":1898,"hel":1899,"pra":1900,"stra":1901,"Ġimp":1902,"Ġkongres":1903,"Ġpriskrib":1904,"Ġfla":1905,"ksa":1906,"tron":1907,"ĠfariÄĿis":1908,"Ġban":1909,"pos":1910,"ĠRi":1911,"tano":1912,"Ġmedi":1913,"Ġprefer":1914,"cien":1915,"nab":1916,"su":1917,"ĠEternulo":1918,"Ġcx":1919,"Ġdistri":1920,"AT":1921,"15":1922,"zer":1923,"into":1924,"tantoj":1925,"Ġnovan":1926,"zem":1927,"Ġteri":1928,"Ġinternaci":1929,"ĠRes":1930,"ĠPre":1931,"ulino":1932,"les":1933,"Ġkutime":1934,"antojn":1935,"ĠiÄĿis":1936,"Ġproksim":1937,"Ġio":1938,"ĠalmenaÅŃ":1939,"Ġreprezen":1940,"ÄĿojn":1941,"ĠÄīam":1942,"ĠaÅŃto":1943,"iga":1944,"Ġtagoj":1945,"Ġvirin":1946,"Ġideo":1947,"ĠJoh":1948,"blo":1949,"Ġkru":1950,"20":1951,"bio":1952,"Ġvesper":1953,"igitaj":1954,"joro":1955,"Ġmontri":1956,"ĠserÄī":1957,"rilo":1958,"Ġdec":1959,"Ġfoj":1960,"Ġrespe":1961,"Ġpere":1962,"17":1963,"Ġfen":1964,"ktis":1965,"Ġinfanoj":1966,"Ġpersonoj":1967,"Ġmalmul":1968,"inon":1969,"Ġgaze":1970,"ĠÄĿuste":1971,"Ġmiaj":1972,"ĠeÅŃro":1973,"Ġsimple":1974,"pula":1975,"Ġkomenci":1976,"Ġtial":1977,"ĠY":1978,"tanoj":1979,"Ġ?":1980,"iaj":1981,"ĠX":1982,"Ġunue":1983,"oma":1984,"Ġ196":1985,"dre":1986,"Ġses":1987,"ĠFrancio":1988,"Ġformo":1989,"proksi":1990,"ĠAnkaÅŃ":1991,"Ġanka":1992,"vidu":1993,"klo":1994,"//":1995,"id":1996,"Ġfacile":1997,"Ġfino":1998,"EJ":1999,"ttp":2000,"kuto":2001,"Por":2002,"Ġblan":2003,"Ġviza":2004,"ĠSek":2005,"gru":2006,"Ġzor":2007,"Ġnombro":2008,"Ġprofun":2009,"Ġ25":2010,"ĠFa":2011,"Ġbru":2012,"Ġordon":2013,"Ġvas":2014,"://":2015,"ĠÄĪinio":2016,"Ġ30":2017,"Ġtrovis":2018,"Ġelekti":2019,"Ġmembroj":2020,"ĠOr":2021,"tris":2022,"ts":2023,"Ġiliaj":2024,"Ġperio":2025,"Ġkarak":2026,"jon":2027,"lus":2028,"blio":2029,"tus":2030,"Ġsupo":2031,"dam":2032,"ome":2033,"lado":2034,"Ġprezidanto":2035,"Ġkial":2036,"Ġaferoj":2037,"aron":2038,"ĠAli":2039,"ĠNun":2040,"Ġdekla":2041,"Ġadminis":2042,"ie":2043,"rajn":2044,"Ġare":2045,"ER":2046,"Ġkontribu":2047,"Ġfine":2048,"ĠSankta":2049,"tigo":2050,"Ġtas":2051,"Ġpropra":2052,"Ġduon":2053,"Ġag":2054,"ĠÄīefa":2055,"Ġkultur":2056,"ĠaÅŃskul":2057,"Ġhavi":2058,"Ġmovado":2059,"Ġmontras":2060,"landa":2061,"ĠmanÄĿ":2062,"pun":2063,"Ġpopolo":2064,"Ġstari":2065,"blaj":2066,"ĠaÅŃtor":2067,"ov":2068,"soj":2069,"Ġdevus":2070,"Ġfamilio":2071,"ĠSin":2072,"dante":2073,"Ġtutan":2074,"Ġmur":2075,"Ġregistaro":2076,"Ġdevis":2077,"Ġinkluzi":2078,"11":2079,"Ġestr":2080,"Ġnig":2081,"âĢĵ":2082,"Ġparolas":2083,"aroj":2084,"Ġfir":2085,"Ġtek":2086,"ĠDan":2087,"Ġlonga":2088,"ĠKun":2089,"Ã¶":2090,"Ġdiferen":2091,"deco":2092,"Ġkos":2093,"ĠGo":2094,"pera":2095,"ĠInternacia":2096,"Ġkonta":2097,"Ġaperas":2098,"ÅĿis":2099,"Ġbaz":2100,"daÄµo":2101,"Ġvoja":2102,"Ġeston":2103,"tal":2104,"wi":2105,"mita":2106,"Ġlian":2107,"Ġmortis":2108,"bri":2109,"ĠÄĿoj":2110,"Ġurb":2111,"mem":2112,"Ġcelo":2113,"zono":2114,"leco":2115,"Ġata":2116,"Ġmorto":2117,"Ġarme":2118,"14":2119,"ĠÅĿtato":2120,"Ġnen":2121,"ulon":2122,"ato":2123,"Ġtito":2124,"ju":2125,"ĠreÄĿo":2126,"TO":2127,"Ġdomo":2128,"Ġnome":2129,"ĠSen":2130,"komen":2131,"esta":2132,"Ġnian":2133,"Ġprogramo":2134,"ĠCen":2135,"acioj":2136,"Ġsendepen":2137,"ĠÅĿia":2138,"Ġlonge":2139,"Ġkov":2140,"bra":2141,"Ġmalj":2142,"Ġdonis":2143,"dra":2144,"Ġprovin":2145,"str":2146,"Ġinfan":2147,"ÄĿaj":2148,"ista":2149,"Ġdecembro":2150,"Ġanta":2151,"Ġkiom":2152,"Ġbra":2153,"Ġuzata":2154,"orio":2155,"Ġfeli":2156,"Ġkompu":2157,"Ġras":2158,"via":2159,"Ġknab":2160,"org":2161,"poko":2162,"uma":2163,"tn":2164,"ĠPollando":2165,"ian":2166,"teno":2167,"'t":2168,"Ġdosier":2169,"Ġtiaj":2170,"ĠUn":2171,"16":2172,"Ġplibon":2173,"Ġ195":2174,"Ġsufer":2175,"ag":2176,"Ġlegi":2177,"vajn":2178,"įã":2179,"ĠaÄīe":2180,"oste":2181,"talo":2182,"ĠNor":2183,"ĠBri":2184,"com":2185,"Ġlim":2186,"Ġunuan":2187,"13":2188,"Ġprote":2189,"tere":2190,"Ġnomon":2191,"Ġregu":2192,"ĠBer":2193,"Ġ=":2194,"Ġmodern":2195,"lova":2196,"Ĩįã":2197,"est":2198,"Ġpru":2199,"skrib":2200,"ĠantaÅŃe":2201,"reto":2202,"ĠKan":2203,"Ġserio":2204,"Ġpopula":2205,"tala":2206,"Ġfu":2207,"ÂŃ":2208,"ĨįãĨįã":2209,"Ġfakte":2210,"Ġnum":2211,"dor":2212,"Ġaser":2213,"Ġprepar":2214,"eks":2215,"tia":2216,"Ġbir":2217,"Ġ24":2218,"Ġau":2219,"Ġfinan":2220,"publiko":2221,"Ġklo":2222,"mio":2223,"vuo":2224,"Ġmalgranda":2225,"Ġmes":2226,"umoj":2227,"Ġpovos":2228,"foj":2229,"kre":2230,"Ġligi":2231,"tel":2232,"Ġvidas":2233,"ĠJe":2234,"ĠBon":2235,"fra":2236,"201":2237,"velo":2238,"ĠÅĿanÄĿ":2239,"kade":2240,"Ġesplor":2241,"Tiu":2242,"kun":2243,".)":2244,"bas":2245,"www":2246,"zar":2247,"isma":2248,"Ġedu":2249,"ĠĠĠĠ":2250,"Ġviaj":2251,"ĠBi":2252,"ÅĿajne":2253,"Ġkongreso":2254,"gusto":2255,"mor":2256,"ĠÅĿin":2257,"ĠÄīion":2258,"ĠGran":2259,"Ġgener":2260,"Ġuzo":2261,"kistoj":2262,"ban":2263,"Ġ100":2264,"Ġfrem":2265,"ind":2266,"Ġtag":2267,"Sed":2268,"amaj":2269,"Ġlar":2270,"Ġobjek":2271,"Ġene":2272,"igu":2273,"Ġforlas":2274,"ĠLo":2275,"Ġtemo":2276,"Ġprele":2277,"Ġmembro":2278,"Ġis":2279,"Ġapartenas":2280,"trepren":2281,"isi":2282,"ĠtaÅŃ":2283,"ĠpreÄĿ":2284,"graÅŃ":2285,"Ġsamtempe":2286,"Ġroman":2287,"Ġdeziras":2288,"Ġsukcesis":2289,"dustri":2290,"ĠAntaÅŃ":2291,"ilon":2292,"Ġvojo":2293,"tun":2294,"Ð°":2295,"Post":2296,"blas":2297,"Ġmalsu":2298,"Esperanto":2299,"kin":2300,"ç¤¼åĮħç¤¼åĮħç¤¼åĮħç¤¼åĮħç¤¼åĮħç¤¼åĮħç¤¼åĮħç¤¼åĮħ":2301,"permes":2302,"--":2303,"Ġhal":2304,"Dum":2305,"ĠDa":2306,"Ġdire":2307,"ĠJesuo":2308,"Ġr":2309,"tar":2310,"Ġstre":2311,"Ġdisvas":2312,"ĠNov":2313,"Ġdivi":2314,"zemple":2315,"ĠÄĪar":2316,"ÅĤ":2317,"lezio":2318,"Ġrea":2319,"Ne":2320,"ĠTiam":2321,"ema":2322,"Ġeviden":2323,"IN":2324,"ÅĿa":2325,"Ġem":2326,"diÄĿis":2327,"venas":2328,"Ġforges":2329,"ĠÄĿenerale":2330,"lern":2331,"Ġokul":2332,"Kaj":2333,"Ġ192":2334,"vig":2335,"Ġas":2336,"kaze":2337,"ĠpaÄĿo":2338,"Ġmono":2339,"Ġsituas":2340,"Ġverko":2341,"'m":2342,"Ġfes":2343,"Ġsola":2344,"Ġnuna":2345,"Ð¾":2346,"Ġstran":2347,"dantoj":2348,"Ġrestis":2349,"ÄĿe":2350,"Ġrekon":2351,"ea":2352,"Ġkm":2353,"Ġkato":2354,"his":2355,"mokra":2356,"fine":2357,"Ġentu":2358,"mu":2359,"Ġlokon":2360,"Ġesperantis":2361,"ĠbaldaÅŃ":2362,"Ġpola":2363,"Ġklopo":2364,"ĠSer":2365,"dajn":2366,"ĠTial":2367,".âĢĿ":2368,"kato":2369,"umon":2370,"ĠBra":2371,"Ġdefen":2372,"flanke":2373,"Ġhttp":2374,"ligas":2375,"Ġkas":2376,"Ġapo":2377,"Ġmaniero":2378,"Ġia":2379,"taÄµo":2380,"Ġdecidis":2381,"Ġspiri":2382,"Ġparoli":2383,"Ġmalkov":2384,"Ġfamili":2385,"uman":2386,"anuaro":2387,"ĠFo":2388,"ĠÄīees":2389,"Ġunuaj":2390,"zan":2391,"ĠKongreso":2392,"Ġobser":2393,"Ġhor":2394,"iko":2395,"Ġmeto":2396,"Ġrif":2397,"ĠSur":2398,"Ġkelk":2399,"Ġega":2400,"Ġprinci":2401,"Ġfoje":2402,"grafio":2403,"Ġgravaj":2404,"Ġcir":2405,"Ġkli":2406,"Ġhomojn":2407,"tiÄĿo":2408,"aÄµojn":2409,"Ġverkoj":2410,"aÄµon":2411,"Ġagado":2412,"Ġdona":2413,"tigita":2414,"Ġenhavas":2415,"ktan":2416,"Ġchi":2417,"ĠEÅŃropa":2418,"Ġpozi":2419,"deks":2420,"ÄĿos":2421,"truk":2422,"Ġrime":2423,"mentoj":2424,"Ġpartoprenis":2425,"ez":2426,"Ġentrepren":2427,"Ġplenum":2428,"brojn":2429,"ĠdaÅŃre":2430,"Ġva":2431,"Ġofer":2432,"ph":2433,"Ġjarojn":2434,"Ġmallon":2435,"ĠDis":2436,"urn":2437,"ktobro":2438,"ĠHun":2439,"ign":2440,"Ġrestas":2441,"Ġfilozo":2442,"Ġtero":2443,"ent":2444,"Ġdonas":2445,"Ġfaj":2446,"bel":2447,"ĠTiel":2448,"eron":2449,"ĠdaÅŃri":2450,"gante":2451,"Ġkomenc":2452,"ĠKristo":2453,"laÅŃ":2454,"Ġkomenco":2455,"Ġ2016":2456,"Ġdes":2457,"Ġreli":2458,"trum":2459,"Åľ":2460,"ĠUK":2461,"ins":2462,"ĠTra":2463,"Ġtru":2464,"umentoj":2465,"AN":2466,"ĠpoÅĿ":2467,"ktojn":2468,"Ġnecesas":2469,"kribo":2470,"ĠBu":2471,"Ġjulio":2472,"alon":2473,"Ġkompar":2474,"ĠEsperanta":2475,"pens":2476,"Ġima":2477,"Ġaga":2478,"turi":2479,"taÄµoj":2480,"'d":2481,"Ġbela":2482,"Ġ2017":2483,"Ġvera":2484,"Ġiris":2485,"gle":2486,"KOKOKOKO":2487,"ure":2488,"Ġkrei":2489,"Ġtutmon":2490,"Ġvolis":2491,"Ġdisting":2492,"Ġokup":2493,"uri":2494,"Ġinvi":2495,"stro":2496,"Kon":2497,"Ġero":2498,"Ġpensas":2499,"ĠÄīefurbo":2500,"30":2501,"Ġprojekto":2502,"ÄĪu":2503,"Ġfavor":2504,"ili":2505,"Ġarb":2506,"Ġrest":2507,"ĠLiber":2508,"intoj":2509,"Al":2510,"Ġvenas":2511,"Ġdistrikto":2512,"Ġorigin":2513,"ĠLia":2514,"Ġkulturo":2515,"ĠÄĿu":2516,"Ġanon":2517,"Ġdepen":2518,"ĠIsra":2519,"Ġreali":2520,"Ġesperanta":2521,"Ġrete":2522,"arden":2523,"Ġnatur":2524,"Ġinformoj":2525,"Äīas":2526,"Ġindividu":2527,"Ġrajtas":2528,"Ġturn":2529,"ĠaÅŃtoro":2530,"Ġposed":2531,");":2532,"Ġgla":2533,"perio":2534,"Ġ190":2535,"tembro":2536,"Ġvalor":2537,"200":2538,"EJO":2539,"rante":2540,"Ġmer":2541,"Ġsocio":2542,"Ġple":2543,"Ġdetru":2544,"Äīoj":2545,"Ġmarto":2546,"Ġantik":2547,"iris":2548,"kcio":2549,"Ġw":2550,"ĠSch":2551,"Ġrilate":2552,"ĠVin":2553,"ĠTiuj":2554,"Ġiun":2555,"ty":2556,"teroj":2557,"cistoj":2558,"Ġ2010":2559,"Ġblogo":2560,"Ġkonas":2561,"lantoj":2562,"kitaj":2563,"Ġgen":2564,"ĠPoste":2565,"ĠMos":2566,"Ġnacia":2567,"ĠFor":2568,"pero":2569,"eblaj":2570,"Â°":2571,"mado":2572,"Ġgajn":2573,"Ġokuloj":2574,"trojn":2575,"Ã¤":2576,"Ġfal":2577,"ejon":2578,"Ġpersono":2579,"Ġch":2580,"Ġenkondu":2581,"ĠGra":2582,"Ġnenion":2583,"50":2584,"Ġamp":2585,"ĠBar":2586,"Ġdol":2587,"Ġjuna":2588,"lar":2589,"Ġgrave":2590,"gario":2591,"Ġaldonu":2592,"Ġjanuaro":2593,"ete":2594,"stitu":2595,"tivo":2596,"Ġlingva":2597,"Ġkonkur":2598,"Ġhelpi":2599,"Ġlaboris":2600,"ĠMan":2601,"Ġkvan":2602,"Ġ#":2603,"Ġreligi":2604,"bre":2605,"liber":2606,"Ġprogram":2607,"Ġmajo":2608,"ĠAfri":2609,"Ġvivon":2610,"ĠPli":2611,"Ðµ":2612,"Ġsor":2613,"ĠIa":2614,"kres":2615,"pojn":2616,"Dis":2617,"dono":2618,"Ġaso":2619,"Ġhoma":2620,"Ġfonton":2621,"Ġmalal":2622,"ĠÄµus":2623,"araj":2624,"Ä¥a":2625,"bliote":2626,"Ġran":2627,"cisto":2628,"Ġmilionoj":2629,"Pro":2630,"mig":2631,"ĠvilaÄĿo":2632,"libro":2633,"Ġvortojn":2634,"Ġproksime":2635,"Ġnomata":2636,"Ġproblemo":2637,"ĠÅĿajnas":2638,"Ġeten":2639,"zaj":2640,"Ġalt":2641,"Ġrivero":2642,"Ġnovembro":2643,"Ġplilong":2644,"Ġflor":2645,"tata":2646,"Ġfab":2647,"Ġokazos":2648,"Hel":2649,"iere":2650,"rinde":2651,"ker":2652,"Ġgx":2653,"omento":2654,"ika":2655,"ĠNu":2656,"Ġamikoj":2657,"Ġoktobro":2658,"Ġurboj":2659,"uso":2660,"Ġrevolu":2661,"je":2662,"kap":2663,"umento":2664,"kompren":2665,"tele":2666,"dento":2667,"Ġskribis":2668,"ebru":2669,"Ġnaj":2670,"Â».":2671,"estoj":2672,"Ġdirek":2673,"Ġstruk":2674,"Ġ!":2675,"Ġ22":2676,"Ġnepre":2677,"gara":2678,"ĠRusio":2679,"Ġbar":2680,"Ġ21":2681,"Ġklare":2682,"Ġnenio":2683,"Ġbele":2684,"vid":2685,"fte":2686,"Ġdifin":2687,"Ġdoni":2688,"ĠverÅĿajne":2689,"data":2690,"Ġamo":2691,"Ġmuziko":2692,"ciante":2693,"econ":2694,"ĠÄĿenerala":2695,"land":2696,"tiÄĿas":2697,"Ġsituacio":2698,"Ġkomprenas":2699,"ditaj":2700,"form":2701,"Ġdatum":2702,"Â»,":2703,"Ġaprilo":2704,"gno":2705,"ĠÄīes":2706,"ĠNur":2707,"Ġatingis":2708,"Ġlaboron":2709,"Ġaparte":2710,"ĠaÅŃgusto":2711,"ĠKu":2712,"][":2713,"Ġrekte":2714,"Ġmale":2715,"tina":2716,"Ġ2015":2717,"Ġvirinoj":2718,"ĠkaÅĿ":2719,"ordo":2720,"aso":2721,"Ġorigina":2722,"inter":2723,"Ġani":2724,"Ġperiodo":2725,"Ġproce":2726,"Ġvolon":2727,"damen":2728,"Ġindustri":2729,"Ġlerni":2730,"ĠCi":2731,"Ġ2018":2732,".,":2733,"Ġlong":2734,"ĠHispanio":2735,"milito":2736,"Ġjus":2737,"Ġpolitika":2738,"Ġsti":2739,"Ġfilmo":2740,"Ġrekomen":2741,"ĠnaskiÄĿis":2742,"Ġseks":2743,"Ġseptembro":2744,"Ġcentro":2745,"Ġvirino":2746,"Ġkristan":2747,"dro":2748,"jn":2749,"izo":2750,"vata":2751,"Ġgepa":2752,"Ġrespondis":2753,"Ġtrin":2754,"Ġnovajn":2755,"fab":2756,"Å¡":2757,"Ġdeks":2758,"ĠMul":2759,"Ġu":2760,"Ġprofi":2761,"kons":2762,"Ġoka":2763,"zia":2764,"Ġatingi":2765,"etoj":2766,"Ġthe":2767,"ence":2768,"ĠÄīiuta":2769,"ĠRespubliko":2770,"Ġseku":2771,"Ġbonan":2772,"Ġtraduko":2773,"kro":2774,"ĠMia":2775,"ĠBel":2776,"ĠTEJO":2777,"gip":2778,"Ġuzis":2779,"dejo":2780,"if":2781,"eriko":2782,"ĠSta":2783,"Ġalilingva":2784,"ĠOri":2785,"Ġusona":2786,"ÅĿta":2787,"Ġtraduku":2788,"Ġ50":2789,"gnos":2790,"Ġbel":2791,"Ġinformojn":2792,"Ġalvo":2793,"Ġflanko":2794,"Ġmalo":2795,"Ġ23":2796,"Ġekzamen":2797,"ligis":2798,"Ġdisvolvita":2799,"Ġpatrino":2800,"ĠÅĿab":2801,"ĠHel":2802,"Ġlastaj":2803,"sk":2804,"Ġartikoloj":2805,"Ġdemando":2806,"pla":2807,"uzeo":2808,"ĠRu":2809,"Ġfama":2810,"Ġricevi":2811,"ĠHer":2812,"Ġtekni":2813,"Ġparolis":2814,"tulo":2815,"ktoro":2816,"Ġgre":2817,"Ġjunio":2818,"traj":2819,"Ġtempon":2820,"Ġanali":2821,"Ġverkis":2822,"Ġkredas":2823,"ãģ":2824,"Ġkonsen":2825,"omoj":2826,"Ġcel":2827,"Ġdemokra":2828,"Ġparti":2829,"ĠloÄĿanta":2830,"Ġplilongigi":2831,"Ġeta":2832,"logia":2833,"Ġalpor":2834,"tiv":2835,"Helpu":2836,"Ġrevuo":2837,"Ġprezentas":2838,"Ġlokoj":2839,"Ġgrupoj":2840,"teli":2841,"tempa":2842,"au":2843,"Äījo":2844,"Ġkomuna":2845,"LI":2846,"Ġspa":2847,"âĪ":2848,"lantaÅŃ":2849,"LaÅŃ":2850,"ĠKel":2851,"Ġsamtema":2852,"Ġtria":2853,"Ġinstitu":2854,"Â«":2855,"baj":2856,"ĠSvis":2857,"Ġkapita":2858,"Ġkia":2859,"zojn":2860,"menciante":2861,"Ġron":2862,"ĠVar":2863,"Ġrusa":2864,"Ġdiversajn":2865,"Ġener":2866,"Ġkonsistas":2867,"ĠLing":2868,"ĠEsperant":2869,"zilo":2870,"Ġedzino":2871,"ĠpaÅĿ":2872,"Ġpostu":2873,"Ġege":2874,"gantoj":2875,"Ġmomento":2876,"Ġtrankvi":2877,"Ġforte":2878,"dida":2879,"ĠEU":2880,"ĠIta":2881,"pisko":2882,"toroj":2883,"Kiam":2884,"lino":2885,"ves":2886,"Ġ40":2887,"Ġsign":2888,"Ġsom":2889,"Ġmeze":2890,"Ġasocio":2891,"ciaj":2892,"Ġmalnova":2893,"eta":2894,"Ġfarita":2895,"igon":2896,"fero":2897,"ĠKrome":2898,"Ġloka":2899,"Ġreven":2900,"Ġmalami":2901,"Ġprovinco":2902,"Ġkonfi":2903,"Ġprogres":2904,"Ġekvi":2905,"ĠFin":2906,"end":2907,"Ġaux":2908,"terna":2909,"Ġpubli":2910,"IV":2911,"ĠTri":2912,"Ġhar":2913,"tecon":2914,"ĠPi":2915,"],":2916,"rapi":2917,"ĠTur":2918,"ebruaro":2919,"Ġminu":2920,"Ġsinjor":2921,"Diskuto":2922,"ĠriÄī":2923,"lute":2924,"Ġproksimume":2925,"Ek":2926,"ĀĀĀĀ":2927,"Ġher":2928,"Ġnorma":2929,"cejo":2930,"bin":2931,"Ġ28":2932,"Ġtrovas":2933,"Ġplena":2934,"ĠKol":2935,"ĠâĢĿ":2936,"Ġkorpo":2937,"Ġpromes":2938,"ĠBe":2939,"Ġpan":2940,"ĠÄĿiaj":2941,"ĠWi":2942,"temp":2943,"Ġgrande":2944,"Ġvali":2945,"tikaj":2946,"Ġelsta":2947,"multo":2948,"ĠKiu":2949,"jar":2950,"Ġkonten":2951,"ÅĿu":2952,"teks":2953,"Ġ2000":2954,"fin":2955,"xo":2956,"AS":2957,"ĠKor":2958,"Ġiden":2959,"Ġvivas":2960,"ĠAng":2961,"Ġstri":2962,"kol":2963,"adis":2964,"Ġkonsta":2965,"Ġperfek":2966,"ganto":2967,"ãĥ":2968,"berg":2969,"Ġpie":2970,"Ġsolda":2971,"ĠloÄĿas":2972,"ft":2973,"Ġini":2974,"Ð¸":2975,"Ġkateg":2976,"Ġliteraturo":2977,"Ġpropran":2978,"Ġteritorio":2979,"ĠFon":2980,"Ġeksci":2981,"Ġepoko":2982,"Ġlibroj":2983,"Ġmalaper":2984,"Ġlibera":2985,"ON":2986,"ĠloÄĿantoj":2987,"zita":2988,"Ġlisto":2989,"Ġ26":2990,"Äīis":2991,"Ġagnos":2992,"esperan":2993,"Ġviajn":2994,"Ġvenon":2995,"oris":2996,"ĠUniversitato":2997,"ĠEst":2998,"Ġkoncep":2999,"iÄĿos":3000,"fun":3001,"34":3002,"Ġmateri":3003,"âĪŀ":3004,"Ġ27":3005,"Ġmodi":3006,"Ġkompreni":3007,"eti":3008,"24":3009,"ĠIsraelo":3010,"ĠGe":3011,"ktaj":3012,"Ġvort":3013,"cie":3014,"Ġbonvolu":3015,"Ġapen":3016,"viÄĿis":3017,"ferenco":3018,"vano":3019,"Ġstabi":3020,"Ġpron":3021,"Ġmaten":3022,"ps":3023,"Ġgrama":3024,"ĠEble":3025,"ĠdanÄĿ":3026,"Ġsimpla":3027,"tismo":3028,"Ġ2008":3029,"uraj":3030,"Ġkona":3031,"fan":3032,"mb":3033,"Ġfeder":3034,"ĠSte":3035,"ĠÄīa":3036,"Ġhe":3037,"ĠTh":3038,"Ġtea":3039,"Ġkolekti":3040,"Ġverkon":3041,"ĠÄĪiuj":3042,"rado":3043,"ĠSam":3044,"Ġparla":3045,"ĠJun":3046,"ĠGa":3047,"Ġampleks":3048,"ĠAs":3049,"Ġarg":3050,"Ġopinias":3051,"ĠTie":3052,"vante":3053,"Ã¡n":3054,"Ġkoro":3055,"Ġkonvin":3056,"Ġleg":3057,"Ġiri":3058,"produ":3059,"Ġorien":3060,"Kiel":3061,"ĠTem":3062,"ture":3063,"Ġsocia":3064,"Ġmalfacile":3065,"ĠSAT":3066,"Ġforta":3067,"centoj":3068,"Ġhispana":3069,"ĠIm":3070,"ÄĿu":3071,"mata":3072,"Ġartikolon":3073,"Oni":3074,"Ġtien":3075,"emon":3076,"rila":3077,"Ġpartoj":3078,"ile":3079,"Ġstato":3080,"ben":3081,"Ġgar":3082,"uroj":3083,"ĠCo":3084,"Ġbab":3085,"mino":3086,"Ġresponde":3087,"ĠÅĿatas":3088,"laro":3089,"Ġand":3090,"kiel":3091,"Ġtagon":3092,"Ġesperantisto":3093,"Ġdosieroj":3094,"Ġimperi":3095,"ĠapenaÅŃ":3096,"teria":3097,"uza":3098,"rano":3099,"âĪŀâĪŀ":3100,"Ġiomete":3101,"legi":3102,"ĠQ":3103,"movado":3104,"Ġkreis":3105,"Ġuson":3106,"istem":3107,"Ġ2012":3108,"plen":3109,"87":3110,"ok":3111,"digi":3112,"gri":3113,"ĠÄĪiu":3114,"Äľ":3115,"ly":3116,"ompan":3117,"vali":3118,"Ġkompreneble":3119,"ĠUnio":3120,"Ġsciis":3121,"Ġvorton":3122,"teron":3123,"Ġpose":3124,"EN":3125,"Ġklu":3126,"Ġjes":3127,"Ġtian":3128,"22":3129,"Ġminis":3130,"Ġrajtoj":3131,"ĠAkade":3132,"Ġmaldeks":3133,"KU":3134,"Ġviro":3135,"Ġcelas":3136,"rigar":3137,"Ġmalproksi":3138,"ĠreÄĿ":3139,"kvo":3140,"Ġmalri":3141,"Ġfunkcias":3142,"Ġordin":3143,"burgo":3144,"ĠSinjoro":3145,"Ġpsi":3146,"inda":3147,"Ġkoncer":3148,"Ġsilen":3149,"ĠmalgraÅŃ":3150,"tanto":3151,"ĠUniversala":3152,"alisto":3153,"Ġbalo":3154,"Ġmaro":3155,"Ġbonaj":3156,"Ġtekstoj":3157,"ua":3158,"Ġstar":3159,"rojn":3160,"tantaj":3161,"ĠMaria":3162,"ĠSud":3163,"Ġparton":3164,"tista":3165,"viadi":3166,"Ġara":3167,"ĠÅĿton":3168,"ry":3169,"vel":3170,"Ġnuntempe":3171,"ĠJam":3172,"blan":3173,"Ġir":3174,"nam":3175,"Ġnes":3176,"Ġerotika":3177,"edio":3178,"Ġareo":3179,"Ġsendi":3180,"ĠmalantaÅŃ":3181,"grafi":3182,"25":3183,"Ġmaljun":3184,"zu":3185,"ĠBal":3186,"Ġmalfru":3187,"Ġinkluzive":3188,"Ġmu":3189,"Ġkandida":3190,"Ġfakto":3191,"Ġrela":3192,"ĠSal":3193,"Ġpartopreni":3194,"iro":3195,"ĠEkzemple":3196,"ĠJapanio":3197,"Ġhoro":3198,"Äį":3199,"Ġevoluo":3200,"Ġpublika":3201,"Ġmalvar":3202,"stin":3203,"Ġarki":3204,"ĠÃĹ":3205,"Ġpopoloj":3206,"Ġfirma":3207,"Unu":3208,"Ġsekve":3209,"bis":3210,"Ġdemandis":3211,"Ġmalpermes":3212,"Ġform":3213,"Ġaktu":3214,"Ġadministra":3215,"igos":3216,"Ġsab":3217,"Ġoficiala":3218,"tab":3219,"ĠÄĿen":3220,"Ġpensis":3221,"Ġgeo":3222,"Ġinicia":3223,"Ġmesa":3224,"Ġy":3225,"ĠItalio":3226,"Ġbran":3227,"ĠÅĿtatoj":3228,"Ġpaco":3229,"Ġmonatoj":3230,"punkto":3231,"taroj":3232,"longe":3233,"Ġ2011":3234,"Ġpartio":3235,"undo":3236,"Ġkontin":3237,"Ġtab":3238,"Ġstuden":3239,"cel":3240,"Ġkompon":3241,"Ġbatalo":3242,"che":3243,"ĠIz":3244,"Mal":3245,"Ġmalfacila":3246,"ĠdediÄī":3247,"Ġhere":3248,"domo":3249,"vido":3250,"iÄĿon":3251,"Ġprenis":3252,"ĠbedaÅŃ":3253,"Ġplene":3254,"23":3255,"):":3256,"landaj":3257,"Ġhi":3258,"Ġrolon":3259,"Ġunuo":3260,"Ġmenso":3261,"Ġforma":3262,"Ġ2009":3263,"jare":3264,"Ġcent":3265,"Ġpolitiko":3266,"Ġkomputi":3267,"alie":3268,"Ġtransi":3269,"Ġmonon":3270,"IS":3271,"Ð½":3272,"pozicio":3273,"Ġlum":3274,"Ġmova":3275,"De":3276,"Ġripe":3277,"acion":3278,"Ġnivelo":3279,"Ġmalhel":3280,"40":3281,"ĠGu":3282,"Kom":3283,"ĠLon":3284,"ĠBritio":3285,"rans":3286,"Ġet":3287,"Ġfebruaro":3288,"ĠSove":3289,"ĠleÄĿo":3290,"Ġversi":3291,"post":3292,"ĠCar":3293,"ĠkuÅĿ":3294,"ganta":3295,"tike":3296,"Ġvek":3297,"Ġsx":3298,"Ġregistri":3299,"fis":3300,"Ġ{":3301,"iÄĿintaj":3302,"Ġvizitis":3303,"Ġapro":3304,"Ġarmeo":3305,"Ġorgan":3306,"Jen":3307,"amoj":3308,"ktita":3309,"entoj":3310,"Ġmontris":3311,"ĠÄīiun":3312,"ĠÄµurn":3313,"Ġfrue":3314,"ĠSub":3315,"lono":3316,"Ġkomence":3317,"Ġnaturo":3318,"onon":3319,"ando":3320,"kle":3321,"Ġkrome":3322,"Ġuzado":3323,"arato":3324,"Ġsun":3325,"doni":3326,"Ġverkisto":3327,"vide":3328,"Ġnumero":3329,"Ġskribi":3330,"enoj":3331,"Ġdokumen":3332,"vino":3333,"Ġ2007":3334,"Ġoper":3335,"ĠÅĿablon":3336,"uzo":3337,"diÄĿas":3338,"Ġsendis":3339,"Ġ2014":3340,"Ġfizi":3341,"ĠKonsi":3342,"Ġspecioj":3343,"Ġdese":3344,"bal":3345,"Ġremem":3346,"'ve":3347,"AR":3348,"ĠNeni":3349,"ĠKial":3350,"Ġesperas":3351,"tek":3352,"Estas":3353,"Ġparol":3354,"Ġmankas":3355,"Ġrastrum":3356,"ĠAX":3357,"mos":3358,"Ġpreter":3359,"ĠSpi":3360,"Ġ189":3361,"Ġnatura":3362,"El":3363,"Ġteritor":3364,"Ġbildo":3365,"ĠAfriko":3366,"ÑĢ":3367,"ĠNeder":3368,"Ã½":3369,"Ġtaks":3370,"Ġprezentis":3371,"ÑĤ":3372,"ĠmaÅĿ":3373,"27":3374,"venon":3375,"ÄĿan":3376,"ĠÄľis":3377,"ĠRom":3378,"Ġrastrumeroj":3379,"tuloj":3380,"ularo":3381,"ska":3382,"isiono":3383,"Ġstrato":3384,"ĠEkde":3385,"Ġkapo":3386,"enon":3387,"strio":3388,"kulo":3389,"Ġricevas":3390,"Ġkarakteri":3391,"Ġ2006":3392,"Ġnekon":3393,"erio":3394,"Ġaver":3395,"Ġfinfine":3396,"Ġmomen":3397,"ĠHe":3398,"Ġ--":3399,"Ġproblemoj":3400,"Ġcentra":3401,"56":3402,"ĠEgip":3403,"reco":3404,"Ġz":3405,"ĠKvankam":3406,"Ġakompan":3407,"Ġhelpo":3408,"baroj":3409,"ĠloÄĿantaro":3410,"ilojn":3411,"dika":3412,"Ġlis":3413,"Ġmina":3414,"Ġsankta":3415,"mitaj":3416,"igx":3417,"Ġdank":3418,"ou":3419,"viÄī":3420,"Ġlaboras":3421,"plan":3422,"Ġinteresa":3423,"Ġlingvojn":3424,"Ġelekto":3425,"Ġentute":3426,"Ġmalfor":3427,"trino":3428,"ĠLin":3429,"ĠÅĿul":3430,"dar":3431,"Ġrevenis":3432,"Ġfoli":3433,"Ġsaman":3434,"iri":3435,"mia":3436,"ĠÄĿian":3437,"Ġgravas":3438,"Ġ2013":3439,"ĠÄľener":3440,"Ġvan":3441,"ĠGranda":3442,"pita":3443,"Ġblu":3444,"sti":3445,"ĠBen":3446,"pagan":3447,"landan":3448,"turoj":3449,"Ġrigardis":3450,"tul":3451,"Ġinsta":3452,"Ġduo":3453,"Ġgri":3454,"esperanto":3455,"forma":3456,"Ġhoroj":3457,"ĠMin":3458,"Ġpala":3459,"ell":3460,"Ġmalgrandaj":3461,"Ġlernejo":3462,"ĠeÅŃ":3463,"Ġsuda":3464,"Ġamiko":3465,"Ġkurso":3466,"ĠfiÅĿ":3467,"Ġbazi":3468,"Ġsubskrib":3469,"ĠNord":3470,"uba":3471,"Ñģ":3472,"cz":3473,"veco":3474,"ĠaÅŃdis":3475,"Ġestraro":3476,"up":3477,"Ġokaze":3478,"Ġtranspor":3479,"ĠEks":3480,"Ġkorek":3481,"Ġbibliote":3482,"lingvaj":3483,"ĠParizo":3484,"ĠTomo":3485,"Ġideoj":3486,"Ġates":3487,"fici":3488,"ĠJohano":3489,"Ġreci":3490,"ĠUr":3491,"Ġrezulto":3492,"ĠMem":3493,"ogle":3494,"Ġproponas":3495,"Ġdosiero":3496,"enco":3497,"LE":3498,"Ġviroj":3499,"80":3500,"daÄµoj":3501,"mer":3502,"Ġfam":3503,"lingvo":3504,"ĠJos":3505,"21":3506,"fes":3507,"zidanto":3508,"Ġpubliko":3509,"cajn":3510,"Ġenhavo":3511,"turon":3512,"TC":3513,"teraj":3514,"ys":3515,"ligo":3516,"tt":3517,"ãĤ":3518,"hu":3519,"Ġbio":3520,"Ġ000":3521,"ĠIKU":3522,"Ġrevi":3523,"ĠantaÅŃa":3524,"tempo":3525,"ĠFine":3526,"Ġimpres":3527,"ĠUN":3528,"Ġvortaro":3529,"ĠPas":3530,"Ġrilatoj":3531,"Ġparte":3532,"ÄĪe":3533,"Ġakiri":3534,"ĠEsperantistoj":3535,"ĠÄīefaj":3536,"parto":3537,"Mar":3538,"ĠÅĿajne":3539,"Ġinform":3540,"Ġskla":3541,"Ġsubite":3542,"Ġinsulo":3543,"ĠpaÄĿoj":3544,"Ġ2005":3545,"Ġmano":3546,"Ġsupre":3547,"dire":3548,"Ġmalmulte":3549,"Ġiras":3550,"ÅĿto":3551,"Ġradio":3552,"ĠHungario":3553,"Ġsekreta":3554,"Ä¥o":3555,"oron":3556,"ÄĿus":3557,"uron":3558,"Ġkomprenis":3559,"pio":3560,"Ġilian":3561,"Ġparola":3562,"Ġeventu":3563,"ciojn":3564,"Ġhispan":3565,"gajn":3566,"Ġpartoprenantoj":3567,"26":3568,"ya":3569,"Ġland":3570,"ĠPetro":3571,"ĠAleks":3572,"kura":3573,"zajn":3574,"Ġmanoj":3575,"ĠEÄī":3576,"Ġaldoni":3577,"Ġscen":3578,"Ġnomoj":3579,"Ġsimila":3580,"ĠloÄĿantojn":3581,"ĨĴ":3582,"Ġvetur":3583,"ebl":3584,"Ġaro":3585,"Ġben":3586,"vice":3587,"Ġdiskuto":3588,"Ġlernis":3589,"Ġkonklu":3590,"Ġkompa":3591,"Ġrespekti":3592,"preneble":3593,"Ġ29":3594,"Ġsubstan":3595,"zistas":3596,"zento":3597,"Ġdra":3598,"Ġmoderna":3599,"Ġvun":3600,"Ġaparta":3601,"Ġeldono":3602,"Ġtemoj":3603,"Ġinternaciaj":3604,"Ġspeciala":3605,"ĠKris":3606,"tuga":3607,"lante":3608,"ĠrenkontiÄĿo":3609,"Ġsurpri":3610,"Ġpied":3611,"vojo":3612,"Ġescep":3613,"Ġankau":3614,"terio":3615,"ĠIM":3616,"Ġurbon":3617,"ire":3618,"ĠPra":3619,"tebla":3620,"ĠVa":3621,"Ġ%":3622,"Ġnorda":3623,"ĠIzra":3624,"Ġfundamen":3625,"Asocio":3626,"Ġvivis":3627,"ktu":3628,"Ġlegis":3629,"Ġperfor":3630,"viÄĿo":3631,"ĠAsocio":3632,"Ġinterpre":3633,"Ġfrato":3634,"Ġpunkto":3635,"vena":3636,"Ġokcidenta":3637,"Ġforto":3638,"ĠCe":3639,"ĠWil":3640,"ĨįãĨįãĨįãĨįã":3641,"ĠTer":3642,"Ġkriti":3643,"65":3644,"ĠPlej":3645,"seks":3646,"Ġmort":3647,"Ġretpo":3648,"eca":3649,"mid":3650,"II":3651,"ĠÄĿarden":3652,"taron":3653,"arki":3654,"prenis":3655,"Ġ31":3656,"kcidenta":3657,"Ġkazo":3658,"Ġekzistis":3659,"ĠÄĪeÄ¥":3660,"ĠVarso":3661,"Ġmalsamaj":3662,"lovakio":3663,"Ġpoem":3664,"Ġnaciaj":3665,"ĠAd":3666,"Ġmondon":3667,"Ġekstre":3668,"ĠÄīina":3669,"Ġplurajn":3670,"Ġkunsi":3671,"lok":3672,"Ġpromen":3673,"hon":3674,"Mon":3675,"Ġagra":3676,"Ġlandon":3677,"Äīon":3678,"kolor":3679,"vange":3680,"cent":3681,"Ġadres":3682,"iÄĿinta":3683,"Ġhomaro":3684,"Ġris":3685,"Ġceloj":3686,"keco":3687,"cha":3688,"fen":3689,"Ġhistoria":3690,"Ġdun":3691,"Ġseksa":3692,"Ġmalsan":3693,"san":3694,"cialan":3695,"ĠKio":3696,"Ġvojon":3697,"Ġok":3698,"ĠVen":3699,"mpi":3700,"espon":3701,"Ġkampo":3702,"Ġefektive":3703,"Ġbildoj":3704,"ger":3705,"ĠVal":3706,"meo":3707,"Ġlibron":3708,"Ġuniversita":3709,"Ġduono":3710,"tari":3711,"Re":3712,"her":3713,"ĠAkademio":3714,"ĠEstis":3715,"stre":3716,"ani":3717,"Ġmeti":3718,"ingo":3719,"ĠIKUE":3720,"cor":3721,"ide":3722,"Ġnomas":3723,"formo":3724,"Ġlokaj":3725,"Ho":3726,"tiÄĿi":3727,"Ġmonto":3728,"Ġitala":3729,"Ġkultura":3730,"Ġelektis":3731,"Ġ&":3732,"ĠÂ·":3733,"Inter":3734,"Ġkv":3735,"ĠpreÄĿejo":3736,"ĠMor":3737,"alismo":3738,"ĠKata":3739,"Ġpoe":3740,"zitan":3741,"Ġregionoj":3742,"Ġdipl":3743,"Ġpotenco":3744,"Ġinterkon":3745,"Ġalb":3746,"komuni":3747,"danta":3748,"tiga":3749,"ĠFre":3750,"Ġnordo":3751,"ç¤¼åĮħç¤¼åĮħç¤¼åĮħç¤¼åĮħç¤¼åĮħç¤¼åĮħç¤¼åĮħç¤¼åĮħç¤¼åĮħç¤¼åĮħç¤¼åĮħç¤¼åĮħç¤¼åĮħç¤¼åĮħç¤¼åĮħç¤¼åĮħ":3752,"Ġinfano":3753,"Ġhejm":3754,"Ġpara":3755,"Ġkr":3756,"Ġbestoj":3757,"AntaÅŃ":3758,"Ġbur":3759,"Ġlok":3760,"Ġsupren":3761,"Ġinteralie":3762,"Ġscii":3763,"ÅŃtra":3764,"Ġrifuz":3765,"Ġstatu":3766,"Ġajna":3767,"Ġfabri":3768,"ploj":3769,"lanta":3770,"Ġtrov":3771,"ĠHar":3772,"Ġste":3773,"ĠBrazilo":3774,"cipo":3775,"ens":3776,"vole":3777,"ĠThe":3778,"Ġmateria":3779,"Ġtatu":3780,"igoj":3781,"Ġpremi":3782,"ĠkomenciÄĿis":3783,"Ġbas":3784,"Ġelsen":3785,"ĠâĨĴ":3786,"Äľi":3787,"Ġmortin":3788,"Ġlibere":3789,"38":3790,"vad":3791,"Ġ*":3792,"delo":3793,"Ġsupoz":3794,"60":3795,"Ġreligio":3796,"Ġsp":3797,"Ġinstruis":3798,"Ġmalbona":3799,"loro":3800,"Ġnokto":3801,"litaj":3802,"Ġhavos":3803,"ĠĠĠĠĠĠĠĠ":3804,"ĠCer":3805,"ĠNacia":3806,"28":3807,"Ġalvenis":3808,"Ġtravi":3809,"Ġamik":3810,"Ġuniversitato":3811,"ate":3812,"Ġstaris":3813,"fita":3814,"Ġsenco":3815,"gxo":3816,"logo":3817,"alu":3818,"Ġpostulas":3819,"Ġsinjoro":3820,"Ġkanto":3821,"Ġgxi":3822,"Ġpetas":3823,"Ġliver":3824,"Ġmondmilito":3825,"Ġfig":3826,"Ġkiaj":3827,"Ġekzemplo":3828,"29":3829,"Ġkoncen":3830,"ĠHen":3831,"Ġideon":3832,"ĠKelkaj":3833,"konstru":3834,"ĠJer":3835,"Ġstaras":3836,"Ġkapablas":3837,"vebla":3838,"Ġpastro":3839,"Ġtitolo":3840,"Ġtor":3841,"ĠâĢĺ":3842,"Do":3843,"Ġgh":3844,"ESTO":3845,"ekz":3846,"ĠPola":3847,"Ġvari":3848,"Ġkopi":3849,"ari":3850,"Ġsekvis":3851,"alan":3852,"Ġsh":3853,"Pri":3854,"Ġafi":3855,"ĠÄ¥":3856,"Ġtraj":3857,"Ġmiks":3858,"Ġfojon":3859,"fio":3860,"Ġpetis":3861,"Äīaj":3862,"Ġkil":3863,"Ġfiks":3864,"Ġplane":3865,"Ġkonataj":3866,"Ġ(\"":3867,"istemo":3868,"Ġtermin":3869,"porno":3870,"ĠMultaj":3871,"Ġdistan":3872,"ĠSE":3873,"Ġorienta":3874,"Ġgepatroj":3875,"Ġlumo":3876,"faj":3877,"istemoj":3878,"alajn":3879,"Ġsimbo":3880,"Ġgravan":3881,"Ġmarbor":3882,"Ġplejparte":3883,"ĠAra":3884,"dulo":3885,"Ġsendu":3886,"Ġreto":3887,"done":3888,"Ġpon":3889,"Ġprotes":3890,"Ġinterv":3891,"ĠJan":3892,"loÄĿ":3893,"Ġsignifo":3894,"Ġniajn":3895,"Ġom":3896,"Ġadap":3897,"Ġmallonga":3898,"Ġhelp":3899,"uste":3900,"Ġatribu":3901,"Ġnomita":3902,"Ġteamo":3903,"ĠIS":3904,"Ġmiajn":3905,"Ġhazar":3906,"33":3907,"Ġkvanto":3908,"kal":3909,"Ġatendas":3910,"burg":3911,"Ġsus":3912,"lum":3913,"Ġaviadi":3914,"Ġkresk":3915,"Ġdecido":3916,"Ġanim":3917,"Ġride":3918,"Ġbazo":3919,"Ġflug":3920,"Ġfonto":3921,"Ġsentas":3922,"Ġkategori":3923,"Ġpaci":3924,"kipedia":3925,"bata":3926,"Ġhomaj":3927,"Ġekonomia":3928,"Ġsole":3929,"Ġservo":3930,"Ġeniris":3931,"menta":3932,"Ġformoj":3933,"ĠKam":3934,"Ġkilome":3935,"ĠTre":3936,"ĸĳ":3937,"Ġsuno":3938,"loke":3939,"ulara":3940,"kuti":3941,"Ġmalliber":3942,"Ġeksplo":3943,"Ġgeed":3944,"Ġstabila":3945,"bert":3946,"ĠvoÄīdon":3947,"Ġbirdoj":3948,"oo":3949,"Ġisla":3950,"Ġsimilaj":3951,"ĠGoogle":3952,"Ġdio":3953,"Ġvidu":3954,"Nun":3955,"Ġ+":3956,"ĠLan":3957,"Ġnomis":3958,"Ġeklezio":3959,"Ġspeciale":3960,"Ġspor":3961,"kurso":3962,"Ġcerta":3963,"Ð¾Ð":3964,"ĠOrgani":3965,"ĠPIV":3966,"ĠOn":3967,"Ġmalrapi":3968,"Ġevidente":3969,"ĠScien":3970,"ĠnomiÄĿas":3971,"Ar":3972,"dovi":3973,"Ġarto":3974,"Ġesperant":3975,"Ġrilatas":3976,"Ġkalku":3977,"Ġprovis":3978,"ĠÄīambro":3979,"ĠBur":3980,"ĠFESTO":3981,"ÄĿen":3982,"igar":3983,"ĠÅĿanÄĿi":3984,"Ġteori":3985,"Ġakceptis":3986,"Ġplez":3987,"leto":3988,"plena":3989,"ĠNova":3990,"Ġekle":3991,"ligita":3992,"Ġproduktoj":3993,"Ġstilo":3994,"kva":3995,"Ġrecipro":3996,"Ġdefini":3997,"Ġkonfir":3998,"Ġnigra":3999,"!!":4000,"ĠÄīielo":4001,"ĠVil":4002,"lone":4003,"Ġkonsci":4004,"lav":4005,"ĠIr":4006,"ĠSoci":4007,"tara":4008,"net":4009,"Ġproksima":4010,"Ġsup":4011,"ĠÄ¤":4012,"Ġmanko":4013,"Ġkonfes":4014,"ĠPrin":4015,"Ġerar":4016,"VA":4017,"DE":4018,"Ġlabori":4019,"Ġepisko":4020,"Ã³n":4021,"inaj":4022,"ĠFun":4023,"kulturo":4024,"kalo":4025,"Ġtekston":4026,"ĠvojaÄĿ":4027,"Ġmetis":4028,"Ġsudo":4029,"Ġfaros":4030,"Ġkunveno":4031,"ĠAzio":4032,"bun":4033,"Ġmilit":4034,"ĠSve":4035,"tana":4036,"tenas":4037,"ĠNia":4038,"ĠDon":4039,"Ġtrajn":4040,"Ġpronon":4041,"gitaj":4042,"stron":4043,"ĠÅĿablonoj":4044,"pto":4045,"tigitaj":4046,"pola":4047,"Ġsentis":4048,"gal":4049,"ĠKanado":4050,"ĠvizaÄĿo":4051,"Äīam":4052,"Ġplimulto":4053,"Ġpolitikaj":4054,"ĠantaÅŃen":4055,"Ġhistori":4056,"Ġasocioj":4057,"Ġfoto":4058,"ila":4059,"ĠGre":4060,"ĠVla":4061,"paÄĿo":4062,"Ġdemandoj":4063,"fran":4064,"Ġinterna":4065,"70":4066,"Ġordo":4067,"ĠÄ´":4068,"Ġscienco":4069,"Ġenke":4070,"Ġ60":4071,"35":4072,"Ġreta":4073,"Ġsenpa":4074,"aniere":4075,"loko":4076,"ĠBul":4077,"Ġrimarkis":4078,"Ã¨":4079,"ĠDua":4080,"KOKOKOKOKOKOKOKO":4081,"Ġvic":4082,"baze":4083,"Ġabso":4084,"ĠMaro":4085,"Ġado":4086,"ĠCom":4087,"ĠâĢ¦":4088,"fiko":4089,"ĠEklezio":4090,"Ġdevenas":4091,"ĠmonaÄ¥":4092,"Ġpensi":4093,"Ġkapon":4094,"Ġlogi":4095,"Ġsalu":4096,"bable":4097,"Ġiel":4098,"Ġripo":4099,"Ġblanka":4100,"Ġkonstitu":4101,"Ġafri":4102,"Ġantikva":4103,"199":4104,"ese":4105,"get":4106,"fono":4107,"ĠPlone":4108,"ĠÄľia":4109,"ĠVir":4110,"Ġplibonigi":4111,"Ġminutoj":4112,"Ġalie":4113,"Ġsemajno":4114,"ĠVo":4115,"Ġaktiva":4116,"Ġorganizo":4117,"Ġfondita":4118,"No":4119,"wski":4120,"Ġuzantoj":4121,"ĠCentra":4122,"ĠPaÅŃ":4123,"ĠloÄĿis":4124,"Ġmedic":4125,"Ġsekva":4126,"ĠMeksi":4127,"Ġdudek":4128,"EL":4129,"tadon":4130,"Ġgazeto":4131,"Ġmalmultaj":4132,"Ġenme":4133,"Ġfesto":4134,"Ġuzataj":4135,"Ġ2004":4136,"Ġaktiv":4137,"Ġpropagan":4138,"Ġvivi":4139,"Ġprizor":4140,"Ġsove":4141,"Ġprezenti":4142,"XX":4143,"RO":4144,"ĠLas":4145,"Ġpriva":4146,"ĠÄīie":4147,"Ġmanier":4148,"Ġlinio":4149,"__":4150,"eton":4151,"ĠNederlando":4152,"\")":4153,"ĠVor":4154,"emaj":4155,"Ġspaco":4156,"ĠÄīas":4157,"Ġtrovos":4158,"miÄĿis":4159,"sur":4160,"Ġmovi":4161,"ĠpaÄĿon":4162,"ĠTe":4163,"ĠTu":4164,"ĠvoÄīo":4165,"Ġtelefon":4166,"Ġlingv":4167,"ĠUkra":4168,"04":4169,"Ġapli":4170,"igh":4171,"Ġjudoj":4172,"Ġfre":4173,"NU":4174,"ĠAÅŃstra":4175,"diÄĿo":4176,"Ġpordo":4177,"Ġjaron":4178,"fil":4179,"ĠnaÅŃ":4180,"sub":4181,"Ġprecize":4182,"Ġmatema":4183,"Ġrekla":4184,"ĠinterÅĿan":4185,"ĠFrancis":4186,"cado":4187,"Ġtim":4188,"kante":4189,"Ġdiale":4190,"Ġreferen":4191,"logiaj":4192,"kolo":4193,"ĠDom":4194,"Ġdesegn":4195,"Ġjarde":4196,"Ġaferojn":4197,"ĠIMG":4198,"jun":4199,"ĠKrom":4200,"ordin":4201,"Tio":4202,"Ġkler":4203,"ranta":4204,"Ġfilino":4205,"Ġrelative":4206,"que":4207,"Ġsociaj":4208,"glo":4209,"Ġeviti":4210,"ds":4211,"Ġgaran":4212,"Ġjarcentoj":4213,"Ġproponis":4214,"ĠKul":4215,"Ġsk":4216,"rom":4217,"nask":4218,"Ġpermesas":4219,"Ġfacila":4220,"gor":4221,"Ġsignifon":4222,"Ġmeri":4223,"estas":4224,"Ali":4225,"Ġankaux":4226,"Ġkreita":4227,"ÄĿaro":4228,"ĠCon":4229,"Ġfaru":4230,"ĠRen":4231,"vantaj":4232,"ĠaÄĿo":4233,"inde":4234,"Ġtransfor":4235,"onojn":4236,"Ġmedio":4237,"Ġelektita":4238,"ÅĿe":4239,"polo":4240,"Åľan":4241,"traÄµo":4242,"Ġtasko":4243,"Ġforlasis":4244,"Ġtransdon":4245,"Ġago":4246,"Ġhelpas":4247,"tle":4248,"ĠÅĿo":4249,"ĠÅĿar":4250,"Ġrigard":4251,"Ġarm":4252,"aten":4253,"ner":4254,"Ġalte":4255,"Ĩĳ":4256,"trado":4257,"Ġtagojn":4258,"??":4259,"Ġdevos":4260,"Ġprofesoro":4261,"estis":4262,"kodo":4263,"Ġavanta":4264,"Ġcxe":4265,"Ġvizitan":4266,"Ġkomita":4267,"Ġkonsideras":4268,"Ġfren":4269,"Ġesprimo":4270,"ĠSvislando":4271,"bol":4272,"erojn":4273,"tag":4274,"Ġproduktado":4275,"ksim":4276,"Ġskribas":4277,"ĠStu":4278,"karo":4279,"Ġcxiuj":4280,"vitaj":4281,"pres":4282,"Ġlerno":4283,"Per":4284,"ĠÄµe":4285,"Ġemo":4286,"Ġprefere":4287,"ĠorganizaÄµo":4288,"grupo":4289,"ĠCor":4290,"Ġrevolucio":4291,"ĠKe":4292,"Ġromano":4293,"Ġabun":4294,"kulp":4295,"tivoj":4296,"Ġstrate":4297,"Ġmetodo":4298,"Ġvig":4299,"ĠKion":4300,"Ġvidpunkto":4301,"naci":4302,"Ġprodukti":4303,"Ġdin":4304,"Ġspecio":4305,"ĠFili":4306,"ÅĻ":4307,"igni":4308,"Ġmonda":4309,"194":4310,"Ġmeta":4311,"Ġpil":4312,"ment":4313,"Ġperdis":4314,"ston":4315,"plu":4316,"Ġsubtenas":4317,"ĠPla":4318,"ĠKongres":4319,"Ġinformo":4320,"Ġnas":4321,"nova":4322,"Ġaero":4323,"dori":4324,"Ġhistorion":4325,"Ġekzempl":4326,"ĠFer":4327,"ĠeÅŃropa":4328,"Ġokazo":4329,"ĠUz":4330,"Ġrajton":4331,"Ġtr":4332,"zias":4333,"Ġoriginala":4334,"Ġneder":4335,"Ġrilato":4336,"Tamen":4337,"dr":4338,"Ġsoli":4339,"Ġanglan":4340,"Ġpropraj":4341,"para":4342,"31":4343,"UTC":4344,"tiri":4345,"Ġhumi":4346,"iÄĿu":4347,"use":4348,"Ġ35":4349,"Ġpek":4350,"Ġiliajn":4351,"Ġsekvas":4352,"Ġfederacia":4353,"han":4354,"unu":4355,"Ġservoj":4356,"ĠFakte":4357,"Ġhungar":4358,"Ġlatin":4359,"Ġrigardi":4360,"Ġekkon":4361,"Ġakiris":4362,"Ġduan":4363,"Ġspeco":4364,"ĠEsperantujo":4365,"IA":4366,"Mo":4367,"liÄĿis":4368,"Ġminim":4369,"Ġjunaj":4370,"ÄĿanta":4371,"Ġartikolojn":4372,"Ġsupra":4373,"Ġestab":4374,"poli":4375,"Ġkvali":4376,"Ġproblemojn":4377,"tivaj":4378,"line":4379,"Ġtenden":4380,"Ġdeklaris":4381,"Ġsimile":4382,"rako":4383,"âĨĳ":4384,"Ġkomencas":4385,"Ġarbo":4386,"Ġgrandajn":4387,"Ġmuni":4388,"Ġpoeto":4389,"ĠFeder":4390,"ll":4391,"sem":4392,"ĠLito":4393,"Ġaltaj":4394,"ET":4395,"ĠGad":4396,"Ġfondis":4397,"Ġaferon":4398,"we":4399,"ĠeÅŃropaj":4400,"Ġhungara":4401,"ĠLibera":4402,"ĠAÅŃstrio":4403,"Ġekzer":4404,"ĠLudovi":4405,"Ġstul":4406,"Äīu":4407,"Ġromp":4408,"ordina":4409,"ario":4410,"ĠKompreneble":4411,"ĠÄĿusta":4412,"arto":4413,"ĠÅĿtu":4414,"ĠPan":4415,"ĠVia":4416,"Ġtiajn":4417,"lendaj":4418,"Ġapartenis":4419,"Ġvenos":4420,"Ġkomunikado":4421,"Ġ2001":4422,"ste":4423,"Ġhero":4424,"ÅĦ":4425,"Ġservis":4426,"ĠGeor":4427,"sed":4428,"Ġopor":4429,"Ġlibrojn":4430,"Ġrenkontis":4431,"konstan":4432,"iuj":4433,"Ġbul":4434,"ĠEo":4435,"Ġkondam":4436,"EK":4437,"tato":4438,"Ġmemsta":4439,"Ġmonato":4440,"Ġpatrolita":4441,"aja":4442,"Ġsimilas":4443,"Ġdia":4444,"ĠDek":4445,"Ġpardon":4446,"Ġinven":4447,"terojn":4448,"Ġjapana":4449,"ria":4450,"ĠIJ":4451,"Ġrevu":4452,"ĠUnuiÄĿintaj":4453,"36":4454,"Ġner":4455,"Ġkonstruita":4456,"Ġlito":4457,"Ġeko":4458,"ĠUson":4459,"Ġcifer":4460,"ÅľanÄĿoj":4461,"];":4462,"ĠTero":4463,"Ġgrun":4464,"Ġdatumoj":4465,"pel":4466,"kiloj":4467,"Ġmaterialo":4468,"Ġdistribu":4469,"Ġdependas":4470,"gata":4471,"kosmo":4472,"ĠEr":4473,"traÄµoj":4474,"Ġrakonto":4475,"Ġtaj":4476,"Jes":4477,"Ġindikas":4478,"Ġkontrolendaj":4479,"ciklo":4480,"valo":4481,"gion":4482,"tional":4483,"bil":4484,"Ġklin":4485,"Ġlingvis":4486,"dy":4487,"Ġpopulara":4488,"nlando":4489,"ĠKos":4490,"Ġligita":4491,"Ġanimo":4492,"Ġmirin":4493,"Ġghi":4494,"ulis":4495,"Ġproces":4496,"Ġakcepti":4497,"Ġfajro":4498,"Ġinstr":4499,"tivalo":4500,"Ġtrakta":4501,"Ġnomi":4502,"Ġeventoj":4503,"OR":4504,"ĠÅĿanÄĿoj":4505,"ĠAmi":4506,"ĠHon":4507,"Ġkoloni":4508,"meto":4509,"bara":4510,"tic":4511,"Ġebligas":4512,"Ġtrejn":4513,"Ġsoldatoj":4514,"Ġsekre":4515,"Le":4516,"ĠneÅŃtra":4517,"ismaj":4518,"igante":4519,"Ġkreas":4520,"Ġkorespon":4521,"ĠnaskiÄĿ":4522,"kus":4523,"Ġetern":4524,"Ġjapan":4525,"tuno":4526,"Ġneniel":4527,"ĠKonsilio":4528,"!\"":4529,"ĠTom":4530,"ĠAt":4531,"ordi":4532,"Ġapu":4533,"Ġscienca":4534,"har":4535,"Ġredu":4536,"Ġkunven":4537,"Ġkompare":4538,"kiu":4539,"Ġsango":4540,"tikan":4541,"Ġfron":4542,"esa":4543,"ĠKore":4544,"ĠUnua":4545,"kaÄµo":4546,"Esperan":4547,"Ġblin":4548,"Ġmus":4549,"ĠreÄĿi":4550,"Ġklaso":4551,"Ġdezer":4552,"erotika":4553,"Ġopinio":4554,"leg":4555,"ue":4556,"eme":4557,"Ġurba":4558,"Ġjunuloj":4559,"ĠVarsovio":4560,"ĠAliaj":4561,"ĠGi":4562,"ĠÅĿajnis":4563,"Ġesprimi":4564,"ĠNacioj":4565,"Ġtermino":4566,"Ġmanif":4567,"Ġkvi":4568,"Ġeksperi":4569,"ĠPartio":4570,"lap":4571,"bulo":4572,"Ġstudentoj":4573,"eso":4574,"ĠTut":4575,"kime":4576,"Ġuzita":4577,"ĠÅĿipo":4578,"Ġfide":4579,"Ġneniun":4580,"Ġpublikigis":4581,"ajo":4582,"ĠGadget":4583,"uran":4584,"Ġposedas":4585,"32":4586,"cho":4587,"Ġokulojn":4588,"ĠEd":4589,"ilkosmo":4590,"Ġhelpis":4591,"Ġfrazo":4592,"Ġdel":4593,"Ġref":4594,"emble":4595,"Ġtradicia":4596,"Ġedukado":4597,"ĠAleksand":4598,"ï»":4599,"Ġadmi":4600,"Ġaktive":4601,"Ġallo":4602,"nabo":4603,"Ġtutmonda":4604,"ĠÅĿip":4605,"Ġreguloj":4606,"kapab":4607,"ld":4608,"Ġsever":4609,"Ġludis":4610,"?âĢĿ":4611,"ente":4612,"Ġludi":4613,"ĠÄľenerala":4614,"Ġrespond":4615,"Ġkantoj":4616,"skij":4617,"braj":4618,"Ġprezento":4619,"Ġkredo":4620,"Ġmanon":4621,"Ġargumen":4622,"Ġregado":4623,"Ġveturi":4624,"Ġsve":4625,"ï»¿":4626,"Ġbrus":4627,"Ġinterparo":4628,"Ġklasi":4629,"damento":4630,"Ġreala":4631,"ĠGermana":4632,"So":4633,"Ġkomunumoj":4634,"kola":4635,"Ġoficiale":4636,"Ġtraduki":4637,"turaj":4638,"ĠMartin":4639,"Ġviziti":4640,"ĠKas":4641,"Ġprobable":4642,"ĠAndre":4643,"landoj":4644,"Ġevento":4645,"nio":4646,"Ġgus":4647,"ĠfariÄĿas":4648,"tinoj":4649,"Ġkonsek":4650,"Ġtatuaj":4651,"manÄĿo":4652,"duloj":4653,"ĠvojaÄĿo":4654,"Ã¢":4655,"ģ£":4656,"ĠInf":4657,"Ġkontroli":4658,"bru":4659,"Ġlatina":4660,"tegorio":4661,"Ġalterna":4662,"kadon":4663,"37":4664,"eja":4665,"ĠImperio":4666,"Äīan":4667,"ĠKubo":4668,"Ġche":4669,"Ġtablo":4670,"Ġkolon":4671,"zitaj":4672,"Ġinstruado":4673,"Ġestonteco":4674,"varo":4675,"Ġlasi":4676,"Ġvero":4677,"sto":4678,"Ġkonven":4679,"gadon":4680,"Ġrezer":4681,"radi":4682,"Kun":4683,"vela":4684,"Ġlaboristoj":4685,"Ġsurbaze":4686,"sojn":4687,"ĠDavid":4688,"Ġkatoli":4689,"zy":4690,"Ġlegas":4691,"gy":4692,"lion":4693,"Ġspirito":4694,"Ġcele":4695,"Ġfalis":4696,"bono":4697,"Ġtend":4698,"Ġmalsam":4699,"Ġbrita":4700,"Ġreprodu":4701,"ĠFra":4702,"Ġkonstrui":4703,"Ġhonor":4704,"ĠMas":4705,"Ġpaf":4706,"Ġlernejoj":4707,"Ġ70":4708,"ĠtroviÄĿis":4709,"Ġvespero":4710,"Ġniv":4711,"Ġfak":4712,"Ġ80":4713,"teto":4714,"Ġcivitanoj":4715,"Ġmalaperis":4716,"ï¼":4717,"ĠJohn":4718,"ĠPatro":4719,"antan":4720,"Ġinstruisto":4721,"Ġsekcio":4722,"Ġkunlaboro":4723,"Ġ)":4724,"78":4725,"lano":4726,"traÅŃ":4727,"Ġformon":4728,"Ġ1990":4729,"aÄĿo":4730,"Ġedzo":4731,"ĠaÅŃtorita":4732,"ley":4733,"Ġkampan":4734,"faco":4735,"kipedi":4736,"Ġkadre":4737,"atan":4738,"Ġcirkonstan":4739,"Ġ188":4740,"Ġian":4741,"Ġintele":4742,"Ġekonomio":4743,"ismon":4744,"Ġlimo":4745,"ÅĿas":4746,"ĠÄīiutage":4747,"Ġmallong":4748,"Ġkonservi":4749,"Ġludo":4750,"Ġrigardas":4751,"formoj":4752,"estroj":4753,"bojn":4754,"Åľi":4755,"Ġaer":4756,"lingvan":4757,"Ġsuges":4758,"ĠLudoviko":4759,"hor":4760,"deno":4761,"Ġpol":4762,"Ġkunme":4763,"Ġdirante":4764,"ĠMoskvo":4765,"gramo":4766,"ĠÅĿat":4767,"alest":4768,"Ġ2002":4769,"Ġtekno":4770,"Ġkelkfoje":4771,"39":4772,"Ġpritra":4773,"Ġsid":4774,"Ġpale":4775,"ĠSpiri":4776,"Ġmalnovaj":4777,"ĠVol":4778,"op":4779,"Ġinspi":4780,"Ġentuzias":4781,"ĀĀĀĀĀĀĀĀ":4782,"Ġekzisto":4783,"Ka":4784,"ĠaranÄĿo":4785,"ĠEle":4786,"cipe":4787,"48":4788,"perni":4789,"uto":4790,"Ġbro":4791,"Ġsova":4792,"Ġat":4793,"ken":4794,"ĠkaÅŃzis":4795,"tataj":4796,"Ãº":4797,"Ðº":4798,"Ġvikti":4799,"Ġpreni":4800,"Ġfing":4801,"Ġpagi":4802,"Ġmodelo":4803,"vanto":4804,"kula":4805,"Ġkredi":4806,"Ġâģ£":4807,"Ġsamaj":4808,"Ġpropono":4809,"Ġantaux":4810,"diskuto":4811,"Ġkampar":4812,"',":4813,"Ġfrua":4814,"ĠSlovakio":4815,"Ġgreka":4816,"ik":4817,"Ġmemoras":4818,"liz":4819,"Bon":4820,"Ġdanke":4821,"Ġrimark":4822,"Ġmorti":4823,"omon":4824,"Ġkonstruado":4825,"Ġkoordina":4826,"sch":4827,"Ġfos":4828,"Ġnura":4829,"Ġpersona":4830,"dol":4831,"Ġutila":4832,"Ġtempera":4833,"usale":4834,"Ġelementoj":4835,"Ġsukceso":4836,"Ġprogramon":4837,"08":4838,"SC":4839,"ĠBonvolu":4840,"Ġrimedoj":4841,"ĠCivi":4842,"Ġpsiko":4843,"ses":4844,"ĉĊ":4845,"teran":4846,"Ġlevi":4847,"Ġludas":4848,"troni":4849,"nov":4850,"Ġinterkonsen":4851,"ĠkonstruaÄµo":4852,"Ġdiman":4853,"ĠÅĿtata":4854,"Ġepi":4855,"Ġliteroj":4856,"Ġebl":4857,"nes":4858,"kaÄµoj":4859,"ĠserÄīi":4860,"Ġceteraj":4861,"ĠNeniu":4862,"ĠEÅŃ":4863,"Pa":4864,"Ġkonvers":4865,"Ġsperto":4866,"ĠKal":4867,"simi":4868,"Ġcxar":4869,"Ġvasta":4870,"iz":4871,"Ġservi":4872,"ĠIns":4873,"Ġpersek":4874,"ĠTion":4875,"Ġefektiv":4876,"german":4877,"Ġkongru":4878,"tm":4879,"Ġliajn":4880,"Ko":4881,"TT":4882,"ĠPu":4883,"preni":4884,"Ġordonis":4885,"und":4886,"gano":4887,"Ġ500":4888,"arko":4889,"ĠOs":4890,"Ġhum":4891,"Ġfina":4892,"Ġakvon":4893,"Ġato":4894,"Ġdomon":4895,"Ġnajbar":4896,"Ġprojektoj":4897,"Ġsidis":4898,"ill":4899,"proksim":4900,"Ġfas":4901,"ĠLabor":4902,"ĠAmeriko":4903,"**":4904,"komun":4905,"Ġhejmo":4906,"bl":4907,"ÄĿejo":4908,"Ġproponi":4909,"Ġsupozas":4910,"Ra":4911,"Ġfervoj":4912,"Ġplenumi":4913,"trankvi":4914,"anon":4915,"ĠInstitu":4916,"Ġevange":4917,"ficejo":4918,"ieraÅŃ":4919,"Ġkreskis":4920,"umis":4921,"Ġgvidis":4922,"del":4923,"ĠKomitato":4924,"ÅĿton":4925,"Ġkompli":4926,"Ġasertas":4927,"iganta":4928,"Ġprogramoj":4929,"ujon":4930,"Ġlingvaj":4931,"pere":4932,"lingve":4933,"Ġfortoj":4934,"zioj":4935,"toso":4936,"âĢľ.":4937,"Ġsistemon":4938,"Ġforigi":4939,"ðŁ":4940,"ardo":4941,"Ġmalkon":4942,"Ġgaranti":4943,"taÄµojn":4944,"Ġdirektoro":4945,"ritaj":4946,"ĠRomo":4947,"Ġtal":4948,"Ma":4949,"Ġlernado":4950,"bera":4951,"Ĥ¬":4952,"Ġdama":4953,"puti":4954,"Ġmuzeo":4955,"lanto":4956,"jet":4957,"stu":4958,"igado":4959,"Ġdifini":4960,"Ġpreferas":4961,"mato":4962,"Â²":4963,"Ġkatolika":4964,"Ġarbaro":4965,"ĠAÅŃstralio":4966,"ĠSovetun":4967,"Ġpal":4968,"Ġgajnis":4969,"kata":4970,"milo":4971,"Ġprezidento":4972,"Ġpriskribo":4973,"Ġkra":4974,"Ġvaloro":4975,"ida":4976,"Ġteo":4977,"Ġbonven":4978,"ministro":4979,"Ġmalalta":4980,"Ġpopol":4981,"Ġknabo":4982,"ĠÅĿiaj":4983,"Ġinformon":4984,"Ġvaria":4985,"ff":4986,"ĠTemas":4987,"Ä´":4988,"ÅĤa":4989,"scien":4990,"Ġestro":4991,"ĠPl":4992,"Ġresti":4993,"rich":4994,"Ġsubteni":4995,"ĠJerusale":4996,"cu":4997,"oras":4998,"ĠUnue":4999,"alojn":5000,"75":5001,"Ġmanojn":5002,"Ġrakontis":5003,"ajnas":5004,"noj":5005,"Ġkonsul":5006,"ny":5007,"Ġklara":5008,"?\"":5009,"ÄĿita":5010,"Ġvizito":5011,"tagme":5012,"fos":5013,"Ġbom":5014,"distoj":5015,"ĠUkrainio":5016,"orita":5017,"aspe":5018,"Ġkvalito":5019,"grafia":5020,"ĠGNU":5021,"ĠSpe":5022,"Ġlernantoj":5023,"Ġtraduk":5024,"Ġ2003":5025,"ĠÎ":5026,"Ġalfab":5027,"ĠKre":5028,"ĠEsperantista":5029,"kcioj":5030,"ĠMond":5031,"ĠPaÅŃlo":5032,"ÃĤ":5033,"Ġobe":5034,"Ġrolo":5035,"EF":5036,"Ġfaritaj":5037,"ham":5038,"ilis":5039,"Ġpovu":5040,"ĠSekve":5041,"Ġnecesa":5042,"Ġblog":5043,"Ġemfa":5044,"68":5045,"teksto":5046,"Ġesen":5047,"Ġvarme":5048,"Ġrakontas":5049,"49":5050,"Ð»":5051,"Ġproblemon":5052,"Ġmuzik":5053,"Ġeventuale":5054,"05":5055,"uris":5056,"Ġdiru":5057,",\"":5058,"Ã¸":5059,"Ġsocialis":5060,"Ġsekso":5061,"tedra":5062,"Ġideojn":5063,".:":5064,"Ġtom":5065,"Ġdatre":5066,"Ġbordo":5067,"zion":5068,"posto":5069,"Ġgermanaj":5070,"organi":5071,"Ġbildon":5072,"ĠkuraÄĿ":5073,"45":5074,"rejo":5075,"Ġdemandon":5076,"tz":5077,"kluzi":5078,"Ġsalaj":5079,"ĠFi":5080,"dona":5081,"Ġelspe":5082,"Ġobjekto":5083,"Ġmetro":5084,"66":5085,"Ġares":5086,"cian":5087,"dataj":5088,"Ġnacioj":5089,"ev":5090,"Ġbelaj":5091,"ĠSil":5092,"ĠSuda":5093,"tadis":5094,"estr":5095,"ĠTaj":5096,"Ġklarigi":5097,"saj":5098,"Ġmalfeli":5099,"Ġkastelo":5100,"kloj":5101,"Ġetoso":5102,"Ġlago":5103,"Ġkapti":5104,"09":5105,"kimedia":5106,"likto":5107,"....":5108,"ĠParla":5109,"ĠTrans":5110,"Ġarte":5111,"jan":5112,"Ġski":5113,"Ġwww":5114,"Ġpenso":5115,"ĠaÄīeti":5116,"Â®":5117,"Ġofen":5118,"Ġkonek":5119,"ĠNorda":5120,"Ġsubjek":5121,"ĠHan":5122,"Ġteorio":5123,"Ġforpas":5124,"Ġaspekto":5125,"Ġdifino":5126,"Ġstranga":5127,"dumo":5128,"ego":5129,"Ġkursoj":5130,"Ġfilmoj":5131,"trio":5132,"nun":5133,"granda":5134,"Ġnukle":5135,"Ġgrandega":5136,"emokra":5137,"ÄĿinta":5138,"ĠBan":5139,"Ġdemand":5140,"fron":5141,"Ġfan":5142,"umado":5143,"kejo":5144,"Ġestrar":5145,"Ġsube":5146,"ĠRadio":5147,"zonoj":5148,"spekti":5149,"ĠaÅŃd":5150,"ĠLingvo":5151,"lun":5152,"Ġizo":5153,"riko":5154,"digis":5155,"Ġvento":5156,"Ġaldonis":5157,"Ġscio":5158,"06":5159,"Nu":5160,"Ġprokla":5161,"Fran":5162,"maniere":5163,"Ġeliris":5164,"gel":5165,"ald":5166,"Ġflugi":5167,"berto":5168,"ĠaÅŃtoma":5169,"Ġverda":5170,"Ġkonsideri":5171,"Ġrekta":5172,"LID":5173,"Ġchar":5174,"pornografio":5175,"Ġagri":5176,"Ġanarki":5177,"Ġpuri":5178,"Ġprilabor":5179,"Ġtradicio":5180,"Ġtrapas":5181,"Ġfratoj":5182,"Ġkonsentas":5183,"kel":5184,"ĠSovetunio":5185,"Ġgo":5186,"pado":5187,"Ġpartopreno":5188,"Ã§":5189,"Äµe":5190,"ĠFolio":5191,"Ġgermanoj":5192,"lioj":5193,"Ġkomputilo":5194,"tago":5195,"ers":5196,"Ġmaltrankvi":5197,"fgan":5198,"fas":5199,"Ġcon":5200,"Ġstrukturo":5201,"Ġdeparte":5202,"Ġsemajnoj":5203,"Ġraporto":5204,"ĠBelgio":5205,",âĢĿ":5206,"ĠVoj":5207,"ĠÅĿian":5208,"uze":5209,"Ġpeto":5210,"Ġkonsiderata":5211,"Ġprofunde":5212,"Ġlongaj":5213,"Ġorto":5214,"Ġmeza":5215,"Ġkoncerna":5216,"ĠBlan":5217,"ĠaÅŃskulti":5218,"intan":5219,"Ġfunkcio":5220,"ĠJor":5221,"Ġco":5222,"Ġinterreto":5223,"tastro":5224,"tig":5225,"ĠMonda":5226,"Ġunun":5227,"glute":5228,"disto":5229,"Äīismo":5230,"vÃ¡":5231,"Ġkazoj":5232,"Ġornam":5233,"ĠiÄĿas":5234,"Ġlernas":5235,"Ġlasis":5236,"ĠDia":5237,"Ġfinis":5238,"ĠÅĿanÄĿo":5239,"Ġmetroj":5240,"daÅŃrinde":5241,"ĠRos":5242,"ĠKomisiono":5243,"Ġfiloj":5244,"Ġprodukta":5245,"Ġinfluo":5246,"ĠPoli":5247,"embleo":5248,"ktor":5249,"Ġindustrio":5250,"Ġplenkres":5251,"keto":5252,"ĠleÄĿ":5253,"Ġkomerco":5254,"Pre":5255,"Ġletero":5256,"klas":5257,"ĠAnton":5258,"Ġunuafoje":5259,"Ġsent":5260,"Ġkolor":5261,"bli":5262,"vorte":5263,"ĠES":5264,"ĠSem":5265,"maniero":5266,"ministra":5267,"RA":5268,"Ġpasis":5269,"ĠChar":5270,"Ġinternacian":5271,"Ġdeba":5272,"igra":5273,"Ġsolvo":5274,"leo":5275,"Ġstudis":5276,"}}":5277,"ĠserÄīas":5278,"VALID":5279,"ĠBona":5280,"ĠCas":5281,"Ġmalsano":5282,"âĢľ,":5283,"angle":5284,"âĪŀâĪŀâĪŀâĪŀ":5285,"Ġama":5286,"peten":5287,"mili":5288,"Ġlau":5289,"ĠTro":5290,"Ġdeziris":5291,"Ġkonkre":5292,"Ġlibereco":5293,"centro":5294,"Ġkondukis":5295,"Ili":5296,"ĠBarato":5297,"Sur":5298,"regis":5299,"Ġree":5300,"mame":5301,"Ġskan":5302,"Ġenergio":5303,"ĠHam":5304,"Ġekskur":5305,"Ġnacio":5306,"kcep":5307,"Ġstatis":5308,"vineo":5309,"Ġprovo":5310,"ubile":5311,"Ġkonk":5312,"Ġsil":5313,"Ġpublikigita":5314,"tempaj":5315,"Ġeki":5316,"Ġdokumentoj":5317,"Ġpura":5318,"Ġvul":5319,"ĠMad":5320,"ito":5321,"ĠsufiÄīas":5322,"Ġlegantoj":5323,"irkaÅŃ":5324,"kole":5325,"Ġorganizado":5326,"ĠCentro":5327,"Ġfilozofio":5328,"ĠÄīapi":5329,"ĠCetere":5330,"ÅĿoj":5331,"Ġkreskas":5332,"ÃŃn":5333,"Ġtempoj":5334,"des":5335,"Ġkoti":5336,"Ġspecialan":5337,"Ġaltan":5338,"dinto":5339,"Ġplia":5340,"Ġmalbone":5341,"muzi":5342,"Äīuro":5343,"Ġvolo":5344,"AnkaÅŃ":5345,"Ġredaktoro":5346,"Ġiama":5347,"naÅŃ":5348,"Ġsistemoj":5349,"ĠriÄīa":5350,"ef":5351,"Ġrespondo":5352,"ĠEkzistas":5353,"ÄīiÄīo":5354,"Ġrifu":5355,"veblas":5356,"tikon":5357,"Ġebla":5358,"Ġkomitato":5359,"amikoj":5360,"Ġsekretario":5361,"Ġkresko":5362,"ĠBerlino":5363,"ĠFinnlando":5364,"Äīer":5365,"Ġpartn":5366,"Ġusonaj":5367,"Ġaven":5368,"Ġprocezo":5369,"Ġalven":5370,"Ġfirmao":5371,"!âĢĿ":5372,"TE":5373,"Ġvideo":5374,"ĠCa":5375,"Ġatendis":5376,"Ġdomoj":5377,"ĠKarlo":5378,"ĠÅĿlos":5379,"lecon":5380,"Ġatenton":5381,"Ġlud":5382,"Ġekstera":5383,"ĠmanÄĿi":5384,"eblan":5385,"Ġsolvi":5386,"Ġton":5387,"Ġsude":5388,"ĠfraÅŃ":5389,"Ġsekvaj":5390,"Ġrespondi":5391,"Ġministro":5392,"Ġglor":5393,"kultura":5394,"Ġrajtojn":5395,"Ġprivata":5396,"Ġpapo":5397,"Ġmira":5398,"Ġ1980":5399,"Ġfamilioj":5400,"takto":5401,"Ġsendube":5402,"Ġdirekto":5403,"Ekde":5404,"IM":5405,"ĠpoÅĿt":5406,"Ġbor":5407,"ĠDos":5408,"LA":5409,"tivan":5410,"ĠHin":5411,"Ġkontakto":5412,"Ġpaper":5413,"Ġbaza":5414,"Ġie":5415,"ĠKri":5416,"akti":5417,"Ġtradukis":5418,"sal":5419,"mante":5420,"gxis":5421,"Ġsinsek":5422,"bus":5423,"Ġ45":5424,"Ġtipo":5425,"dano":5426,"Ġbonajn":5427,"Ġhejmen":5428,"ĠLondono":5429,"hal":5430,"ĠPalest":5431,"ĠKato":5432,"ĠÄīiujare":5433,"Ġfotoj":5434,"ong":5435,"prezidanto":5436,"ich":5437,"Ġokazon":5438,"dinda":5439,"fluti":5440,"Ġfri":5441,"teni":5442,"Ġpeti":5443,"ĠJar":5444,"keo":5445,"Ġklubo":5446,"kras":5447,"lau":5448,"Ġhelpon":5449,"Ġvaste":5450,"peto":5451,"iojn":5452,"tage":5453,"faci":5454,"Ġuzante":5455,"Ġplantoj":5456,"Ġparko":5457,"Ġsuspe":5458,"Ġbrazi":5459,"Ġakade":5460,"elojn":5461,"Ġbud":5462,"Ġmuro":5463,"Ġrapida":5464,"Ġforiris":5465,"tigon":5466,"pelo":5467,"tnas":5468,"Ġkonver":5469,"Ġtiama":5470,"Ġmalsupren":5471,"pernity":5472,"44":5473,"ĠâĢķ":5474,"Ġfontoj":5475,"Ġpolico":5476,"tradu":5477,"ĠVinilkosmo":5478,"ĠÄĿisda":5479,"Ġakceptas":5480,"INVALID":5481,"Ġkodo":5482,"ĠOrienta":5483,"Ġsubpre":5484,"Ġkomerca":5485,"ĠMedi":5486,"Ġpolaj":5487,"ajno":5488,"menton":5489,"landanoj":5490,"59":5491,"alistoj":5492,"Ġplifor":5493,"ĠUS":5494,"ĠSvedio":5495,"Ġteror":5496,"Ġkoncepto":5497,"Ġdispu":5498,"Ġbazita":5499,"Ġbus":5500,"TA":5501,"Ġnombron":5502,"tinda":5503,"ĠBab":5504,"Ġeldonita":5505,"Ġregule":5506,"gro":5507,"Ġparen":5508,"ĠIrlando":5509,"Ġprincipo":5510,"Ġkialoj":5511,"Ġita":5512,"Ġkatal":5513,"ink":5514,"ĠÄĪio":5515,"Ġsekvan":5516,"ĠfiniÄĿis":5517,"Ġmerka":5518,"Ġregas":5519,"Ġ90":5520,"sko":5521,"Ġuzon":5522,"Ġreligia":5523,"ÅĿuti":5524,"Ġbiblioteko":5525,"Ġfortika":5526,"usta":5527,"ĠBro":5528,"Ġpliaj":5529,"vero":5530,"Ġ---":5531,"Ġkred":5532,"UN":5533,"Ġanoj":5534,"ĠArgen":5535,"letoj":5536,"Ġsento":5537,"Ġtradukoj":5538,"Ġmall":5539,"Ġarboj":5540,"Ġpartioj":5541,"PL":5542,"ĠCerte":5543,"emi":5544,"Ġfort":5545,"Ġatingas":5546,"elonge":5547,"Ġdiferenco":5548,"ÄĪar":5549,"Ġregno":5550,"Mia":5551,"gaÅŃ":5552,"Ġkron":5553,"nalo":5554,"antaÅŃ":5555,"pensi":5556,"sistemo":5557,"Ġdeter":5558,"Ġastron":5559,"ÄĿeni":5560,"bir":5561,"vaÄµoj":5562,"46":5563,"ĠEdu":5564,"pol":5565,"Ġimperiestro":5566,"Ġsto":5567,"teo":5568,"ĠantaÅŃaj":5569,"Ġintereso":5570,"Ġkompanio":5571,"Ġalu":5572,"umas":5573,"Ġkombin":5574,"Ġverkita":5575,"giono":5576,"Ġhavu":5577,"ĠIzrael":5578,"Ġkonflik":5579,"Ġserioze":5580,"Ġmalofte":5581,"vetur":5582,"tim":5583,"Ġmiloj":5584,"198":5585,"nis":5586,"Ġdisde":5587,"Ġokazi":5588,"ĠTia":5589,"Ġpartojn":5590,"Je":5591,"79":5592,"igno":5593,"ĠbaziÄĿas":5594,"Ġstaci":5595,"gre":5596,"Ġlaux":5597,"tian":5598,"Ġmarbordo":5599,"Ġsigno":5600,"Ġvenonta":5601,"ster":5602,"Ġbr":5603,"nomo":5604,"Ġligno":5605,"ĠEsperantis":5606,"kcidento":5607,"Ġdeven":5608,"inojn":5609,"ĠTele":5610,"romp":5611,"Ġsubteno":5612,"Sa":5613,"eraj":5614,"picx":5615,"NM":5616,"Ġiru":5617,"55":5618,"Ġarbaroj":5619,"Ġcetere":5620,"ĠaÅŃtoroj":5621,"ĠLitovio":5622,"Ġenspe":5623,"Ġnorde":5624,"Ġmalrapide":5625,"Ġorganizi":5626,"Ġstan":5627,"ÄĪiuj":5628,"Ġbirdo":5629,"Ġtranslok":5630,"Ġkoncerne":5631,"Ġkonstante":5632,"ĠBir":5633,"ĠFri":5634,"Ġkatastro":5635,"zolu":5636,"ĠdaÅŃris":5637,"sper":5638,"cido":5639,"Ġpersone":5640,"ĠhaÅŃ":5641,"Ġposta":5642,"Ġjardekoj":5643,"ĠaliÄĿis":5644,"set":5645,"ĠruÄĿa":5646,"Su":5647,"Ġporde":5648,"Ġdialo":5649,"Ġrestor":5650,"Ġmalhe":5651,"ira":5652,"ĠsufiÄī":5653,"ido":5654,"Å¾":5655,"dinte":5656,"Ġiujn":5657,"Ġvenkis":5658,"Libera":5659,"ĠEsperantisto":5660,"panoj":5661,"Ja":5662,"Ġadop":5663,"ima":5664,"naskiÄĿis":5665,"cy":5666,"Ġneo":5667,"ĠGer":5668,"mir":5669,"Ġfenestro":5670,"Ġligo":5671,"ziaj":5672,"Ġamaskomuni":5673,"omeno":5674,"Ġpac":5675,"07":5676,"Ġprovas":5677,"fal":5678,"anton":5679,"Ġpej":5680,"bran":5681,"aciaj":5682,"Ġsukcese":5683,"Ġparlamento":5684,"Ġhipo":5685,"gulo":5686,"bab":5687,"Ġsendepende":5688,"Ġreen":5689,"ĠPres":5690,"Ġokazinta":5691,"mpo":5692,"Ġtradukado":5693,"Ġmalsukces":5694,"...]":5695,"Ġdifinita":5696,"Mul":5697,"ĠIJK":5698,"Ġtera":5699,"belo":5700,"Ġprezo":5701,"Ġlongan":5702,"lingvis":5703,"Ġinteli":5704,"Ġprofunda":5705,"bano":5706,"Äīero":5707,"ĠâĤ¬":5708,"Ġhezi":5709,"kau":5710,"Ġparolantoj":5711,"Ġmatene":5712,"Ġpet":5713,"Ta":5714,"Ġkonferenco":5715,"ksoj":5716,"cs":5717,"iras":5718,"farita":5719,"mentojn":5720,"Ġkonis":5721,"Ġkutima":5722,"rum":5723,"Ġlast":5724,"ĠÄīeval":5725,"Ġjuda":5726,"Ġopinion":5727,"kismo":5728,"Ġbre":5729,"Ġsvis":5730,"ĠaÅŃton":5731,"Ġapartaj":5732,"Ġkuracisto":5733,"til":5734,"ĠCol":5735,"Ġkonsekven":5736,"laroj":5737,"tie":5738,"Ġkonstruis":5739,"Ġimperio":5740,"ĠBuda":5741,"time":5742,"ĠNew":5743,"Ġekstere":5744,"ĠMala":5745,"Ġfloroj":5746,"Ġakuz":5747,"Ġdekstra":5748,"Ġkvartalo":5749,"Ġkulturoj":5750,"æľ":5751,"vaÄµo":5752,"Ġmaksim":5753,"Ġaspektas":5754,"Ġ1970":5755,"Ġplanedo":5756,"ekzemple":5757,"52":5758,"Ġorganizoj":5759,"sin":5760,"Ġsemin":5761,"Ġmales":5762,"LO":5763,"Ġkoncernas":5764,"Ġpiedoj":5765,"ktitaj":5766,"ÄĪiu":5767,"AM":5768,"lara":5769,"Ġformas":5770,"Ġhomon":5771,"buo":5772,"ĠAnglio":5773,"Ġate":5774,"ðŁĺ":5775,"tora":5776,"ĠÅĿtat":5777,"ĠTor":5778,"Ġdonita":5779,"90":5780,"ĠGrek":5781,"aux":5782,"Ġinstitucioj":5783,"lismo":5784,"ameriko":5785,"Pli":5786,"Ġemin":5787,"iki":5788,"Ġemas":5789,"Ġgaj":5790,"Ġdisvolvi":5791,"ĠLen":5792,"Ġlimigita":5793,"Ġkialo":5794,"Ġregion":5795,"Ġbatal":5796,"ĠpaÅŃ":5797,"Ġretro":5798,"ĠMer":5799,"ĠII":5800,"Ġlastan":5801,"Ġrecen":5802,"Ġvidos":5803,"Ġpers":5804,"Ġpretas":5805,"Ġvenko":5806,"bita":5807,"Ġpul":5808,"Ġpilgri":5809,"instru":5810,"Ġkolekto":5811,"ĠOkcidenta":5812,"Ġfremdaj":5813,"libroj":5814,"ĠBre":5815,"Ġrenov":5816,"pin":5817,"Ġaliflanke":5818,"ĠaliÄĿ":5819,"Am":5820,"Ġapero":5821,"ĠÅĿatus":5822,"anojn":5823,"72":5824,"Ġdokumento":5825,"ĠbedaÅŃrinde":5826,"Ġagoj":5827,"ĠAu":5828,"Ġsxi":5829,"Ġinteg":5830,"ĠÄĪina":5831,"Ġpovo":5832,"viden":5833,"Ġreprezentas":5834,"ĠmalÅĿ":5835,"ĠKategorio":5836,"hat":5837,"servo":5838,"ĠVene":5839,"Ġfut":5840,"ĠVe":5841,"Ġdankas":5842,"ĠMuzeo":5843,"Ġveni":5844,"malpli":5845,"book":5846,"Ġskulp":5847,"Ġkontras":5848,"Ġgub":5849,"Ġgravajn":5850,"vajo":5851,"Ġflanke":5852,"Ġtekstojn":5853,"Ġliston":5854,"baro":5855,"Ġpercep":5856,"ĠTago":5857,"Ġoportun":5858,"Gran":5859,"ĠOl":5860,"iu":5861,"zaÄµoj":5862,"ieron":5863,"forme":5864,"Ġmaljuna":5865,"Montri":5866,"Ġrilatojn":5867,"Ġdistingi":5868,"http":5869,"ĠvizaÄĿ":5870,"Ġatendi":5871,"Ġgxin":5872,"ĠÄīeestis":5873,"Dan":5874,"porto":5875,"hr":5876,"Ġmid":5877,"ĠDemokra":5878,"koraÅŃ":5879,"Ġprinco":5880,"ĠaÄīetis":5881,"ĠinaÅŃ":5882,"bicio":5883,"Ġvolonte":5884,"INVALIDINVALID":5885,"Ġkonfuz":5886,"Ġmezo":5887,"Ġricevos":5888,"ĠÅĿanÄĿis":5889,"Ġklasika":5890,"Ġkonflikto":5891,"ãĢ":5892,"Ġkampoj":5893,"Ġkristana":5894,"fika":5895,"ĠkonstruaÄµoj":5896,"vil":5897,"ĠFeli":5898,"Ġhelpos":5899,"ligitaj":5900,"gna":5901,"Ġprun":5902,"ÅĿon":5903,"Ġdemokratio":5904,"Ġpredi":5905,"ejojn":5906,"Ġslova":5907,"igaj":5908,"Ġmalka":5909,"Ġscipo":5910,"Ġkantis":5911,"Kvankam":5912,"Ġ300":5913,"ablono":5914,"Ġabon":5915,"Ġtimo":5916,"Ġkompeten":5917,"Ġdifek":5918,"Ġrapid":5919,"Ġeniri":5920,"Ġintervju":5921,"ĠSame":5922,"cita":5923,"Ġbes":5924,"konsento":5925,"Ġsekureco":5926,"Ø§":5927,"cele":5928,"ĠOficejo":5929,"ĠMeksiko":5930,"Ġkver":5931,"Ġespero":5932,"dt":5933,"Ġkoman":5934,"Ġterura":5935,"fu":5936,"plej":5937,"ĠrenkontiÄĿoj":5938,"Ġkvara":5939,"Ġuzu":5940,"ĠAnjo":5941,"Ġinfanojn":5942,"ĠLiaj":5943,"Ġdemandojn":5944,"Ġmalkovris":5945,"AÅŃ":5946,"fino":5947,"Ġverkojn":5948,"Ġkanta":5949,"Ġrezultoj":5950,"76":5951,"Ġkoler":5952,"port":5953,"ĠÄīeÄ¥a":5954,"az":5955,"Ġentenas":5956,"ĠLern":5957,"kilo":5958,"...)":5959,"Ġinteresaj":5960,"ĠÅĿer":5961,"ĠGar":5962,"Ġuzanto":5963,"Ġagadon":5964,"pedi":5965,"54":5966,"pabla":5967,"Ġsituacion":5968,"Gla":5969,"IO":5970,"Ġdecidi":5971,"Ġmemoro":5972,"Ġperspekti":5973,"Ġspekta":5974,"Ġedzi":5975,"Ġpraktiko":5976,"Ã±":5977,"ĠkaÅŃzo":5978,"Ġperseku":5979,"âĢ¦]":5980,"Ġhejme":5981,"Ġklarigas":5982,"Trans":5983,"Ġoriente":5984,"Ġtelevi":5985,"Ġalbumo":5986,"ung":5987,"Ġkredis":5988,"kanto":5989,"Ġanti":5990,"ĠHu":5991,"ÄĽ":5992,"dago":5993,"ĠLA":5994,"Ġpligran":5995,"ĠÃª":5996,"ĠFilo":5997,"Ġamuz":5998,"parolantoj":5999,"Ġhazarde":6000,"Ġradikoj":6001,"Ġvon":6002,"dal":6003,"ĠleÄĿoj":6004,"ĠVan":6005,"ĠIrano":6006,"Ġreprezentantoj":6007,"digo":6008,"Ġelmon":6009,"Ġder":6010,"Ġbezonis":6011,"hom":6012,"Ġkvadra":6013,"Ġpermesis":6014,"Ġlun":6015,"Ġtoler":6016,"Ġinteligen":6017,"Ġsopi":6018,"Ġstudi":6019,"ĠJohan":6020,"Ġmalfrue":6021,"non":6022,"Â´":6023,"Ġtimas":6024,"deo":6025,"Ġentreprenoj":6026,"Ġlegen":6027,"Ġrespondas":6028,"Ġsimbol":6029,"IR":6030,"Ġsidejo":6031,"mano":6032,"Ġdistanco":6033,"zino":6034,"Ġeldi":6035,"lande":6036,"Ġelektro":6037,"feroj":6038,"voje":6039,"ĠtaÅŃga":6040,"Ġteg":6041,"cal":6042,"listo":6043,"Ġeldonis":6044,"Ġzono":6045,"Ġdonos":6046,"Ġportas":6047,"TM":6048,"Ġparame":6049,"ĠSh":6050,"ĠaÅŃdi":6051,"Ġcelon":6052,"Ġpreta":6053,"Ġdiskon":6054,"Ġoriginalo":6055,"ĠEuro":6056,"ĠKie":6057,"Ġrespektive":6058,"Ġvespere":6059,"tedralo":6060,"amon":6061,"Ġregn":6062,"Ġvarma":6063,"proble":6064,"ĠruÄĿ":6065,"Ġdemandi":6066,"Ġmalgrandan":6067,"ĠAle":6068,"Ġpublike":6069,"ĠÄµur":6070,"pole":6071,"Ġproprajn":6072,"klin":6073,"ĠAb":6074,"ĠÄīia":6075,"Ġkaptis":6076,"Ġvege":6077,"Äĩ":6078,"ĠÄīiutaga":6079,"cin":6080,"Ġdisponebla":6081,"ĠHodiaÅŃ":6082,"monda":6083,"Ġlandli":6084,"tujo":6085,"Ġalportis":6086,"Ġgej":6087,"EE":6088,"liam":6089,"ĠWal":6090,"rojekto":6091,"Ġdro":6092,"ĠPara":6093,"aluton":6094,"Ġpejza":6095,"gin":6096,"Ġstudo":6097,"Ġknabino":6098,"58":6099,"Ġdiab":6100,"ĠFar":6101,"Ġflankoj":6102,"tona":6103,"Ġmulto":6104,"Ġgvidanto":6105,"Ġsimbolo":6106,"ĠmalÄĿoj":6107,"Ġkomunan":6108,"Ġprav":6109,"ĠKolom":6110,"jojn":6111,"Ġdenas":6112,"Ġrestos":6113,"ĠkaÅŃzas":6114,"Ġkondukas":6115,"uzaiko":6116,"Ġcm":6117,"Ġgeedzi":6118,"Ġservas":6119,"Ġstarigis":6120,"ity":6121,"Ġmuzikon":6122,"Ġinvitas":6123,"Ġsomero":6124,"emonio":6125,"Ġnomojn":6126,"Ġpriskribas":6127,"Ġjena":6128,"Afri":6129,"Ġsekv":6130,"Ġprodukto":6131,"Ġteritorioj":6132,"gantaj":6133,"Ġsendependa":6134,"igxis":6135,"clap":6136,"Ġprefi":6137,"ĠKontakto":6138,"ĠMez":6139,"Ġprofesia":6140,"Ġmenciita":6141,"taga":6142,"paco":6143,"Ġvojoj":6144,"yle":6145,"Ġsavi":6146,"Ġsciencistoj":6147,"42":6148,"ĨįãĨįãĨįãĨįãĨįãĨįãĨįãĨįã":6149,"Ġopiniis":6150,"Ġfro":6151,"Ġbelan":6152,"Ġinkluzivas":6153,"Ġanoncis":6154,"deble":6155,"ĠHom":6156,"ĠMilito":6157,"Ġfrazoj":6158,"03":6159,"Ġfamaj":6160,"ĠRuman":6161,"ĠTiun":6162,"Ġeksterlandaj":6163,"ĠBudape":6164,"Ġmalfermis":6165,"tiaj":6166,"Ġmiz":6167,"Ġlign":6168,"99":6169,"Ġforgesis":6170,"ĠÅĿpar":6171,"Ġkore":6172,"Ġnormala":6173,"Ġsamide":6174,"Ġnuntempa":6175,"bado":6176,"Ġnee":6177,"Ġpasinta":6178,"57":6179,"Ġbesto":6180,"Ġkomfor":6181,"Ġsankt":6182,"47":6183,"ÅĿt":6184,"Ġdeziro":6185,"ĠÄĪeÄ¥io":6186,"Ġdikta":6187,"ĠWe":6188,"fr":6189,"kribu":6190,"Ġinstrui":6191,"Ġprovizor":6192,"Ġzorg":6193,"ĠSpirito":6194,"Ġorganizis":6195,"Ġportuga":6196,"Ġdemandas":6197,"Ġenhavon":6198,"ui":6199,"uli":6200,"igata":6201,"ĠsaÄĿ":6202,"Ġkonsentis":6203,"deko":6204,"Ġokcidente":6205,"Ġkoncerto":6206,"Ġversion":6207,"Ġ36":6208,"ĠMedia":6209,"Ġepo":6210,"Ġnego":6211,"53":6212,"ĠÂ©":6213,"ĠFu":6214,"Ġvalidas":6215,"Ġcirkonstancoj":6216,"Ġfe":6217,"ĠelÅĿu":6218,"ĠBj":6219,"ĠmorgaÅŃ":6220,"Ġnecese":6221,"!)":6222,"Ġstratoj":6223,"Ġligitaj":6224,"Ġentrepreno":6225,"Ġsinjorino":6226,"âĢŀ":6227,"aÄĿe":6228,"erna":6229,"Ġsukcesa":6230,"enato":6231,"Ġinkludas":6232,"Ġderi":6233,"esti":6234,"41":6235,"ĠMari":6236,"Ġmalproksime":6237,"Sek":6238,"Ġskribita":6239,"Ġelektroni":6240,"ĠJean":6241,"endaro":6242,"loven":6243,"Ġplano":6244,"Ġilus":6245,"Ġeblecon":6246,"Ġhistoriaj":6247,"let":6248,"dilo":6249,"ĠMalgraÅŃ":6250,"Ġpraktike":6251,"Ġaktuala":6252,"Ba":6253,"Ġdelonge":6254,"ĠHelpo":6255,"skribo":6256,"urojn":6257,"Ġeltro":6258,"Ġinsuloj":6259,"vorto":6260,"Ġkoncentri":6261,"Ġkonson":6262,"Ġplus":6263,"Ġekkri":6264,"Ġreligiaj":6265,"ç¤¼åĮħç¤¼åĮħç¤¼åĮħç¤¼åĮħç¤¼åĮħç¤¼åĮħç¤¼åĮħç¤¼åĮħç¤¼åĮħç¤¼åĮħç¤¼åĮħç¤¼åĮħç¤¼åĮħç¤¼åĮħç¤¼åĮħç¤¼åĮħç¤¼åĮħç¤¼åĮħç¤¼åĮħç¤¼åĮħç¤¼åĮħç¤¼åĮħç¤¼åĮħç¤¼åĮħç¤¼åĮħç¤¼åĮħç¤¼åĮħç¤¼åĮħç¤¼åĮħç¤¼åĮħç¤¼åĮħç¤¼åĮħ":6266,"lava":6267,"ĠEstr":6268,"iÄĿanta":6269,"Ġkontakti":6270,"Ġversioj":6271,"Ġdemon":6272,"cebook":6273,"hol":6274,"Ġprelego":6275,"pr":6276,"Ġkien":6277,"hibicio":6278,"ĠdaÅŃras":6279,"Ġtomb":6280,"Ġilo":6281,"Ġtavo":6282,"Ġsekvi":6283,"kanta":6284,"verso":6285,"ä¸":6286,"ĠLis":6287,"Ġinstan":6288,"Ġklarigis":6289,"ĠÄĿardeno":6290,"Ġrajto":6291,"Ġ1920":6292,"Ã¹":6293,"Ġdetale":6294,"ĠvilaÄĿ":6295,"yn":6296,"ÄĿado":6297,"ĠGal":6298,"orizon":6299,"Ġtalen":6300,"ĠBor":6301,"Ġgvidantoj":6302,"kru":6303,"Ġreale":6304,"penha":6305,"Ġech":6306,"Ġrezolu":6307,"Ġverbo":6308,"lernejo":6309,"Ġakci":6310,"ĠSankt":6311,"Ġpripens":6312,"ĠMarta":6313,"ĠAlia":6314,"Ġeksteraj":6315,"logion":6316,"fre":6317,"parolo":6318,"Ġ1960":6319,"ĠDanio":6320,"Ġ(=":6321,"Ġobjektoj":6322,"Ġdrin":6323,"Ġkrizo":6324,"insulo":6325,"ĠStan":6326,"Ġfinanca":6327,"dri":6328,"astio":6329,"Ġmerkato":6330,"Äīita":6331,"Ġfrukto":6332,"Ġ1992":6333,"zumo":6334,"Ġiros":6335,"ÅĤaw":6336,"Ġvalo":6337,"Ġmembrojn":6338,"Ġmilita":6339,"Ġtradiciaj":6340,"ĠParlamento":6341,"meti":6342,"Ġgenro":6343,"Ġ32":6344,"Ġsimpa":6345,"ĠsenÄī":6346,"Ġekzemploj":6347,"ĠBil":6348,"ith":6349,"pus":6350,"ĠvizaÄĿon":6351,"ĠArgentino":6352,"tologio":6353,"ĠDSC":6354,"ĠIuj":6355,"Ġurbeto":6356,"Ġmetodoj":6357,"Ġoperaci":6358,"Ġpoemoj":6359,"Ġplenan":6360,"Ġinstruistoj":6361,"43":6362,"lingvoj":6363,"dom":6364,"cher":6365,"Ġgeamikoj":6366,"Ġrespubliko":6367,"Ġpartoprenas":6368,"ĠantaÅŃvi":6369,"Ġ1999":6370,"ĠAma":6371,"Ġokupis":6372,"Ġrememor":6373,"ege":6374,"Ġetn":6375,"Ġeksplu":6376,"Ġabsolu":6377,"esko":6378,"Ġgrav":6379,"Ġteron":6380,"Ġpostulis":6381,"02":6382,"manoj":6383,"Ġellabor":6384,"Ġsimplaj":6385,"Ġfanta":6386,"Ġkreado":6387,"gumi":6388,"Ġheb":6389,"ĠInstituto":6390,"KK":6391,"iÄĿoj":6392,"tenon":6393,"Ġkompleta":6394,"Ġmodernaj":6395,"Ġporno":6396,"deknaÅŃ":6397,"Ġanalizo":6398,"Ġperfi":6399,"Ġvolus":6400,"ĠVirg":6401,"damo":6402,"juo":6403,"sol":6404,"Ġrobo":6405,"Ġvaloron":6406,"Ġcertigi":6407,"ĠAmeri":6408,"ĠReÄĿ":6409,"Ġaperos":6410,"GlaÄīero":6411,"Ġdetermin":6412,"Ġ48":6413,"Ġregistrita":6414,"Ġsano":6415,"Ġportis":6416,"Ġretejon":6417,"ÄĿante":6418,"Ġmetas":6419,"ĠÄīesis":6420,"Ġamon":6421,"Ġverki":6422,"Ġpopola":6423,"Ġhavus":6424,"Ġnenia":6425,"Ġpublikaj":6426,"âĸĳ":6427,"lantaj":6428,"ĠVieno":6429,"Sen":6430,"Wiki":6431,"Ġrezign":6432,"1234":6433,"esulino":6434,"Ġretpa":6435,"ĠRaj":6436,"Ġpersonojn":6437,"Ġnega":6438,"Ġhid":6439,"ĠMis":6440,"Ġradiko":6441,"Ġfenomeno":6442,"dezi":6443,"lanoj":6444,"Jam":6445,"Saluton":6446,"Ġinterne":6447,"Ġprinc":6448,"Ġcom":6449,"Ġpastroj":6450,"geno":6451,"ketoj":6452,"ĠÅĿir":6453,"ĠkaÅŃz":6454,"Ġalko":6455,"ĠLigo":6456,"Ġsekure":6457,"Pe":6458,"Ġnere":6459,"danÄĿ":6460,"ĠKongo":6461,"Ġbildojn":6462,"Ġkristanoj":6463,"Ġgazetoj":6464,"123456":6465,"Äģ":6466,"haveno":6467,"Ġesprimas":6468,"Ä¥i":6469,"Ġejo":6470,"Ġjare":6471,"Ġgrado":6472,"Ġ1995":6473,"Ġfruaj":6474,"kino":6475,"ĠWa":6476,"Ġkoloro":6477,"8765":6478,"deknaÅŃi":6479,".âĢľ":6480,"Ġfremd":6481,"ĠFlor":6482,"ĠinteresiÄĿas":6483,"Ġaraba":6484,"pru":6485,"taloj":6486,"Ġkonkurso":6487,"pil":6488,"ksio":6489,"ĠÅĿata":6490,"ĠÄīeÄ¥":6491,"Ġlukto":6492,"ĠPortuga":6493,"Ġkaraktero":6494,"dato":6495,"Ġleteron":6496,"balo":6497,"Ġklar":6498,"doro":6499,"fia":6500,"dantaj":6501,"vortoj":6502,"ĠDankon":6503,"ĠMadri":6504,"Ġdankon":6505,"Ġblankaj":6506,"Ġmontr":6507,"ĠfariÄĿi":6508,"Ġefiko":6509,"vadon":6510,"Ġakv":6511,"trejo":6512,"ĠKonstitu":6513,"Ġkapablo":6514,"Ġkunsido":6515,"Ġ×":6516,"Ġpinto":6517,"Ġkonker":6518,"Ġtaskon":6519,"Ġdatreveno":6520,"Ġsorto":6521,"EU":6522,"ĠFil":6523,"Ġparlamen":6524,"Ġ1991":6525,"paci":6526,"debla":6527,"Kel":6528,"Ġukra":6529,"ĠÄĿojo":6530,"Ġ1998":6531,"Ġesprimis":6532,"nas":6533,"naÄµo":6534,"Ġagi":6535,"teloj":6536,"igan":6537,"Ġplum":6538,"ĠWor":6539,"Ġrekonstru":6540,"ksaj":6541,"Ġretejoj":6542,"74":6543,"Ġmiliton":6544,"Ġadministran":6545,"inan":6546,"cri":6547,"Si":6548,"Ġporna":6549,"Ġmortigi":6550,"Ġrefor":6551,"ĠmanÄĿas":6552,"ĠBud":6553,"\").":6554,"akte":6555,"ĠSim":6556,"Ġjubile":6557,"Ġcertaj":6558,"PER":6559,"Ġetaj":6560,"Ġoficejo":6561,"ĠJako":6562,"ĠNorve":6563,"ĠBrita":6564,"Ġpasi":6565,"ĠKroa":6566,"ult":6567,"Ġtrafi":6568,"Ġindiki":6569,"stri":6570,"Ġintencas":6571,"Ġkomb":6572,"ĠVjet":6573,"Ġricev":6574,"Ġrigardo":6575,"ĠMoseo":6576,"Ġelstara":6577,"Ãª":6578,"Ġgim":6579,"emoj":6580,"Ġ[...]":6581,"kuris":6582,"ĠAmbaÅŃ":6583,"Ġfilozofi":6584,"Ġmaterialoj":6585,"tori":6586,"Ġtrafis":6587,"Ġlicen":6588,"Ġokazoj":6589,"ĠVes":6590,"kie":6591,"ĠLibro":6592,"Ġeksterordin":6593,"Ġprenas":6594,"Ġcert":6595,"Ġprojekton":6596,"Ġdepartemento":6597,"mons":6598,"ĠAnti":6599,"Ġvarm":6600,"moni":6601,"ĠÄīefministro":6602,"63":6603,"Ġspertis":6604,"ĠtaÅŃgas":6605,"Ġrifuzis":6606,"ĠPala":6607,"Ġgrandeco":6608,"ĠFranca":6609,"Ġekspozicio":6610,"galo":6611,"Tra":6612,"ĠEston":6613,"tagmeze":6614,"tito":6615,"dadon":6616,"Ġleganto":6617,"Ling":6618,"ĠStra":6619,"Ġrakontoj":6620,"Ġprincipoj":6621,"ĠWilliam":6622,"ĠPalestino":6623,"Ġegal":6624,"lejo":6625,"Ġsul":6626,"ĠreÄĿis":6627,"Ġbono":6628,"Ġebleco":6629,"oso":6630,"Ġsencon":6631,"Ð²":6632,"ĠRigar":6633,"Ġmankis":6634,"funkci":6635,"Ġvizitantoj":6636,"Ġareoj":6637,"erni":6638,"Ġful":6639,"mana":6640,"ĠnovaÄµoj":6641,"Ġsukcesas":6642,"spi":6643,"citaj":6644,"ĠÅł":6645,"anÄĿ":6646,"ĠSt":6647,"ĠÅľablono":6648,"okaze":6649,"telon":6650,"Ġkompan":6651,"Ġ33":6652,"Ġmuzika":6653,"Ġ1993":6654,"61":6655,"ĠKen":6656,"Ġmiliar":6657,"Ġpreten":6658,"Jo":6659,"ĠPopola":6660,"Ġrimedojn":6661,"Ġkulturaj":6662,"lip":6663,"Ġpropri":6664,"Ġset":6665,"67":6666,"Di":6667,"Ġ38":6668,"Ġplurfoje":6669,"Ġkonduto":6670,"Ġfavore":6671,"libron":6672,"Ġarbar":6673,"Ġrespondon":6674,"sor":6675,"wn":6676,"BI":6677,"Ġlimoj":6678,"kia":6679,"kanoj":6680,"Ġadreso":6681,"Ġesprim":6682,"Ġredakti":6683,"wikipedia":6684,"ĠinÄĿeni":6685,"Ġparale":6686,"Ġludoj":6687,"ĠorganizaÄµoj":6688,"taraj":6689,"Ġlev":6690,"Ġliteratura":6691,"Ġordinara":6692,"france":6693,"ĠGol":6694,"tinte":6695,"ĠDistribu":6696,"ving":6697,"Ġchiuj":6698,"ĠKatalun":6699,"ĠKomunejo":6700,"Ġjuro":6701,"ĠÄĪeÄ¥a":6702,"Kore":6703,"Ñĥ":6704,"ĠMaj":6705,"ĠdaÅŃrigis":6706,"Ġkomencantoj":6707,"ĠJunulara":6708,"alistoko":6709,"ĠaÅŃtomate":6710,"atas":6711,"Ġalti":6712,"Ġekvidis":6713,"Ġmaldekstra":6714,"ĠeÅŃroj":6715,"Ġdiploma":6716,"ĠRumanio":6717,"Ġrezis":6718,"Ġx":6719,"Ġos":6720,"Ġinterre":6721,"Ġsuferis":6722,"ĠBiblio":6723,"Ġenga":6724,"ĠFrancisko":6725,"ĠTon":6726,"Ġkaf":6727,"Ġ150":6728,"ĠAleksandro":6729,"digita":6730,"sion":6731,"Ġinstruas":6732,"LEI":6733,"Ġlokojn":6734,"ĠPeter":6735,"Ġspecifa":6736,"Ġantau":6737,"Ġtenis":6738,"ĠZam":6739,"Ġpozicio":6740,"inteco":6741,"Ġpovi":6742,"Ġmontoj":6743,"Ġmortigis":6744,"Ġesperantista":6745,"Ġagadoj":6746,"Ġteatro":6747,"ĠaliÄĿi":6748,"Ġâĸĳ":6749,"Ġâĸĳâĸĳ":6750,"Ġkonci":6751,"Ġekha":6752,"Ġrimarkin":6753,"enc":6754,"stata":6755,"Ġsinteno":6756,"Ġkoron":6757,"Ġmalfermita":6758,"ĠaranÄĿoj":6759,"Ġlib":6760,"Ġmalpu":6761,"ĠkuÅĿas":6762,"Ġkomplete":6763,"ĠHal":6764,"metis":6765,"Ġenkonduko":6766,"anco":6767,"digas":6768,"ĠTeks":6769,"ĠDE":6770,"ĠRej":6771,"ĠÂ».":6772,"ĠkomenciÄĿas":6773,"trikto":6774,"itajn":6775,"Ġmallar":6776,"Ġbrak":6777,"tejoj":6778,"Ġhavebla":6779,"Ġvokis":6780,"Ġturnis":6781,"gli":6782,"Ġteni":6783,"Ġtemon":6784,"gvi":6785,"Ġdezir":6786,"nombraj":6787,"kson":6788,",[":6789,"Ġrikol":6790,"ĠLitera":6791,"Ġekspozi":6792,"fina":6793,"ĠPA":6794,"ĠParto":6795,"ĠTar":6796,"Ġfratino":6797,"sekso":6798,"trita":6799,"veblaj":6800,"menio":6801,"Ġstatus":6802,"tenoj":6803,"ĠGru":6804,"ĠOli":6805,"ĠTan":6806,"71":6807,"Ġsing":6808,"Ġvivanta":6809,"Ġnomataj":6810,"angla":6811,"Ġspertoj":6812,"Ġnature":6813,"stroj":6814,"ĠFrank":6815,"-)":6816,"orado":6817,"Ġajnan":6818,"ÅĿtatoj":6819,"ĠRuÄĿa":6820,"ĠĠĠĠĠĠĠĠĠĠĠĠĠĠĠĠ":6821,"ÄĻ":6822,"tila":6823,"este":6824,"Ġtemperaturo":6825,"Ġ1945":6826,"Ġatako":6827,"ĠBedaÅŃrinde":6828,"DO":6829,"Ġekestis":6830,"Ġtridek":6831,"Ġimpli":6832,"linio":6833,"ĠÄĿojas":6834,"ĠlarÄĿa":6835,"ĠmesaÄĿo":6836,"eman":6837,"tenis":6838,"ĠBos":6839,"Ġhorojn":6840,"ĠfeliÄīa":6841,"hen":6842,"Ġforton":6843,"lubo":6844,"ĠKantono":6845,"Ġimagi":6846,"Ġviva":6847,"Ġmiri":6848,"Äīeco":6849,"ĠhodiaÅŃa":6850,"Äīambro":6851,"ĠÄīeesto":6852,"ĠmanÄĿo":6853,"Ġangulo":6854,"Ġkonstruo":6855,"Ġfojo":6856,"htm":6857,"tinta":6858,"Ġprelegoj":6859,"Ġneaten":6860,"blioteko":6861,"Ġunika":6862,"Ġmencio":6863,"ise":6864,"ĠstaÄĿo":6865,"Ġfervor":6866,"Ġreveni":6867,"ĠGrekio":6868,"Ro":6869,"kara":6870,"Ġlitero":6871,"ĠkontraÅŃsta":6872,"ĠDosiero":6873,"Ġvico":6874,"premi":6875,"Ġadjek":6876,"Ġgu":6877,"chen":6878,"Ġfrancaj":6879,"Ġnederlanda":6880,"eston":6881,"Ġdiros":6882,"Ġapartan":6883,"Ġtelevido":6884,"Ġokcidento":6885,"tuna":6886,"Ġripro":6887,"progra":6888,"grand":6889,"Ġhotelo":6890,"ĠRon":6891,"Ġtradukon":6892,"ĠMinis":6893,"ĠBr":6894,"Ġgrup":6895,"Ġpraktika":6896,"hard":6897,"Ġrealigi":6898,"ospita":6899,"Ġantikvaj":6900,"ige":6901,"inga":6902,"Ġorganizita":6903,"ĠnaskiÄĿo":6904,"ĠvoÄīoj":6905,"ĠDes":6906,"Ġbonfar":6907,"Ġtromp":6908,"ĠVerda":6909,"KOKOKOKOKOKOKOKOKOKOKOKOKOKOKOKO":6910,"CO":6911,"Nia":6912,"Ġnenian":6913,"Ġsocialismo":6914,"esperanta":6915,"Ñı":6916,"lig":6917,"Ġaldonas":6918,"Me":6919,"ffi":6920,"Ġinformi":6921,"Ġprogramaro":6922,"mm":6923,"Ġtemplo":6924,"ĠGri":6925,"ĠVortaro":6926,"oraj":6927,"Ġartistoj":6928,"Ġepiskopo":6929,"ĠMondmilito":6930,"ÅĿipo":6931,"Ġvideblas":6932,"ĠLand":6933,"ĠGro":6934,"Ġveran":6935,"ĠTTT":6936,"Ġdissen":6937,"Ġesperantaj":6938,"Ġbonega":6939,"xoj":6940,"dina":6941,"pt":6942,"cik":6943,"Ġglu":6944,"Ġkonstanta":6945,"Ġapara":6946,"Ġkorpon":6947,"Ġkategorio":6948,"Ver":6949,"bleco":6950,"ĠvilaÄĿoj":6951,"Ġnaturaj":6952,"Ġverkistoj":6953,"ĠdaÅŃr":6954,"ĠdisvolviÄĿo":6955,"ĠPrezidanto":6956,"Ġpensoj":6957,"Ġfurio":6958,"Ġmunicipo":6959,"ĠSinjor":6960,"Ġponto":6961,"tela":6962,"Ġinves":6963,"ĠFondumo":6964,"Ġprov":6965,"ĠWar":6966,"Ġpalaco":6967,"Ġfako":6968,"Äľis":6969,"lov":6970,"Ġinsek":6971,"Ġplanas":6972,"Ġmalamikoj":6973,"Ġkilometrojn":6974,"ĠEli":6975,"ĠKroatio":6976,"ĠSom":6977,"ĠPapo":6978,"51":6979,"US":6980,"niko":6981,"formaj":6982,"ĠTurkio":6983,"ĠestiÄĿis":6984,"Ġ1994":6985,"Ġfortan":6986,"Ġmapo":6987,"Ġmask":6988,"Ġproto":6989,"kono":6990,"ĠÅĿanÄĿojn":6991,"Ġeben":6992,"Ġfrancan":6993,"Ġperfekta":6994,"kluzive":6995,"ĠMediaWiki":6996,"ernio":6997,"Ġkompreno":6998,"Lo":6999,"Ġdioj":7000,"Ġplue":7001,"Ġfrene":7002,"Ġora":7003,"Ġoficialaj":7004,"ÄĿantaj":7005,"ĠBern":7006,"Ġlevis":7007,"ĠBah":7008,"ĠGPL":7009,"Ġpoezio":7010,"Ġsupera":7011,"Ġprezidan":7012,"Ġtutmonde":7013,"kosta":7014,"umojn":7015,"uja":7016,"ĠÂĹ":7017,"Ġkurson":7018,"Ġefika":7019,"Ġegale":7020,"Ġcelis":7021,"unda":7022,"Ġkavali":7023,"chi":7024,"ĠÄĿui":7025,"Ġblua":7026,"ĠCx":7027,"ĠHispana":7028,"Ġpriskribi":7029,"ĠserÄīo":7030,"kaux":7031,"tonoj":7032,"Ġpasigis":7033,"Ġvidebla":7034,"Ġenergi":7035,"Ġkovri":7036,"Ġgeneralo":7037,"sam":7038,"ĠKru":7039,"ĠKaro":7040,"ĠlaÅŃle":7041,"Ġjusteco":7042,"ĠPrago":7043,"tantan":7044,"ĠBas":7045,"ĠDion":7046,"ceano":7047,"Ġsveda":7048,"Ġbla":7049,"Ġ34":7050,"Ġ39":7051,"grafiaj":7052,"Ġdeveno":7053,"uling":7054,"osa":7055,"puro":7056,"Ġampleksa":7057,"kolora":7058,"Ð´":7059,"ĠMol":7060,"Ġkomentoj":7061,"legis":7062,"ĠAten":7063,"Ġnombroj":7064,"Ġ1930":7065,"64":7066,"Ġ00":7067,"dioj":7068,"ĠPek":7069,"tuÅĿ":7070,"Ġnokte":7071,"lata":7072,"Ġrespub":7073,"Ġproduktas":7074,"Ġkosmo":7075,"ÅĿte":7076,"Ġrekomendas":7077,"Ġsimilan":7078,"zado":7079,"Ġregistaroj":7080,"ĠreÄĿimo":7081,"Ġecx":7082,"Ġdelika":7083,"Ġpotencon":7084,"Ġsenpage":7085,"uel":7086,"ĠPlu":7087,"Ġserv":7088,"ĠPrivata":7089,"wiki":7090,"Ġkilometroj":7091,"Ġjunulo":7092,"Ġ1997":7093,"terioj":7094,"ÃŃa":7095,"Ġcivitan":7096,"Ġtribun":7097,"Ġmilitoj":7098,"car":7099,"tumo":7100,"Ġmalakcep":7101,"Ġinfana":7102,"Ġkir":7103,"ĠMun":7104,"Ġindividuoj":7105,"Ġgramatiko":7106,"Ġpart":7107,"Ġvaloroj":7108,"Ġtransform":7109,"Ġperforto":7110,"ĠFundamento":7111,"Ġhas":7112,"Ġkongresoj":7113,"ĠWikimedia":7114,"Be":7115,"Ġvers":7116,"fiki":7117,"Ġrit":7118,"ligen":7119,"vantoj":7120,"ĠArmeo":7121,"ĠInterna":7122,"ĠÄīambr":7123,"ĠÄµetis":7124,"Ġveron":7125,"ĠÄĿuis":7126,"Ġpromesis":7127,"ĠUzanto":7128,"ĠGvineo":7129,"Ġoro":7130,"permesilo":7131,"Ġmoment":7132,"Ġiloj":7133,"Ġperdi":7134,"ille":7135,"Ġebli":7136,"ĠPakis":7137,"tristo":7138,"ip":7139,"prin":7140,"âĹ":7141,"ose":7142,"Ġekzek":7143,"blis":7144,"ĠKvin":7145,"Ġverk":7146,"Ġleci":7147,"ĠAnna":7148,"Ġfunkciis":7149,"duso":7150,"ĠmesaÄĿ":7151,"vigo":7152,"Ġpin":7153,"Ġpeza":7154,"Ġuniversala":7155,"mono":7156,"Ġul":7157,"taÄµon":7158,"rez":7159,"eld":7160,"Ġkulp":7161,"Ġsono":7162,"ĠKonstan":7163,"Ġprezentita":7164,"ĠKopenha":7165,"Ġarmiloj":7166,"77":7167,"Ġhelpan":7168,"ĠUsona":7169,"Ġunufoje":7170,"Ġsubven":7171,"Ġstarigi":7172,"demokra":7173,"Ġ1910":7174,"ĠChi":7175,"Ġinforma":7176,"Ġagrabla":7177,"Ġmalmo":7178,"Ġregulo":7179,"Ġfirme":7180,"Ġgeneracioj":7181,"Ġstacidomo":7182,"69":7183,"Ġmek":7184,"Ġpersonaj":7185,"ĠPaul":7186,"Ġ1989":7187,"Ġpacon":7188,"Ġscienc":7189,"Ġmetrojn":7190,"Ġkamara":7191,"ĠFilip":7192,"turn":7193,"Ġfaktoj":7194,"Ġnigraj":7195,"celi":7196,"ĠHol":7197,"bser":7198,"ĠadiaÅŃ":7199,"Ġtun":7200,"Ġinteresoj":7201,"ĠMen":7202,"ĠpaÅĿo":7203,"paroj":7204,"ĠNikola":7205,"Kial":7206,"Ġtrajtoj":7207,"NA":7208,"Ġkuba":7209,"iso":7210,"ĠEgiptio":7211,"Ġmirinda":7212,"Ġbild":7213,"Ġelektas":7214,"Ġrezultojn":7215,"Ġklopodis":7216,"Ġaviadilo":7217,"uk":7218,"Ġofta":7219,"Ġpasintaj":7220,"Ġkontribuis":7221,"blajn":7222,"Ġpoemo":7223,"Ġmalkres":7224,"ĠÄĮ":7225,"krimin":7226,"provi":7227,"Ġstudoj":7228,"vadministra":7229,"Ġ<":7230,"Ġhorizon":7231,"Ġmencias":7232,"vadoro":7233,"pajn":7234,"Ġmat":7235,"62":7236,"Ġalteco":7237,"Ġdisko":7238,"Ġenhavadministra":7239,"agren":7240,"Ã¡r":7241,"lie":7242,"kot":7243,"Ġkalkul":7244,"Ġrimedo":7245,"73":7246,"tiÄĿon":7247,"fur":7248,"Ġpremo":7249,"Ġstacio":7250,"ĠRevolu":7251,"Ġspecialaj":7252,"ĠÃ¦":7253,"Ġsubtenon":7254,"Ġnokt":7255,"ĠtuÅĿ":7256,"pp":7257,"tonon":7258,"ĠCha":7259,"ĠÅĿatis":7260,"Ġununura":7261,"Na":7262,"mala":7263,"ejmo":7264,"ĠKomence":7265,"Ġmilionojn":7266,"Ġgrupon":7267,"Ġgrundo":7268,"Ġ1996":7269,"Ġrilaton":7270,"hoj":7271,"Ġhaltis":7272,"ĠdaÅŃrigi":7273,"Ġtrajno":7274,"Ġtombo":7275,"Ġkub":7276,"ĠdisÄīi":7277,"Ġtradukita":7278,"tigu":7279,"Ġign":7280,"ĠPen":7281,"tute":7282,"Ġprepari":7283,"menko":7284,"Ġkonsistigas":7285,"ĠAsembleo":7286,"Ġkoordinatoj":7287,"mil":7288,"ĠiÄĿi":7289,"Ġmalfermi":7290,"ky":7291,"ganoj":7292,"grupoj":7293,"filo":7294,"Ġmalamiko":7295,"grade":7296,"Ġtitolon":7297,"ĠSto":7298,"Ġsteloj":7299,"ĠAfgan":7300,"dadis":7301,"Ġkana":7302,"Ġgita":7303,"ĠDistribuata":7304,"Fine":7305,"Ġesence":7306,"Ġinformis":7307,"ĠInterreto":7308,"gvajo":7309,"Ġpolitikan":7310,"Ġregulojn":7311,"Ġgeneracio":7312,"ĠPortugalio":7313,"glu":7314,"amas":7315,"ĠJoze":7316,"ĠfeliÄī":7317,"bia":7318,"è¡":7319,"Ġdolaroj":7320,"Ġeraro":7321,"IC":7322,"ĠMuzaiko":7323,"tula":7324,"prote":7325,"Ġamaso":7326,"Ġprotekti":7327,"ĠhieraÅŃ":7328,"ĠKur":7329,"Ġ55":7330,"Ã©s":7331,"Ġproponon":7332,"Ġoriento":7333,"Ġunuopaj":7334,"Ġvidpun":7335,"Ġfranc":7336,"ĠEsperantaj":7337,"noma":7338,"Kio":7339,"kovri":7340,"Ġsalono":7341,"Ġmalvarma":7342,"idoj":7343,"ĠOfte":7344,"Ġbelega":7345,"ls":7346,"aÅŃri":7347,"Ġnormale":7348,"ĠViki":7349,"ĠZe":7350,"ĠNuntempe":7351,"TV":7352,"hn":7353,"Ġdezajn":7354,"ĠÅĿanÄĿiÄĿis":7355,"Ġenmig":7356,"trata":7357,"Ġflago":7358,"Ġposedanto":7359,"Ġvio":7360,"Ġretiri":7361,"dejoj":7362,"BN":7363,"âĢ²":7364,"Ġmontaro":7365,"Ġfotojn":7366,"Ġvetero":7367,"rekven":7368,"ĠIMGP":7369,"Ġmanifesta":7370,"peris":7371,"Ġpropor":7372,"Ġkomis":7373,"ĠDar":7374,"Ġformi":7375,"Ġatente":7376,"ĠILEI":7377,"Ġdiskuti":7378,"Ġblank":7379,"Ġsuferas":7380,"Ġgxis":7381,"ĠRevuo":7382,"Ġdirekti":7383,"Ġkonstatis":7384,"Ġmovadon":7385,"RE":7386,"Ġnove":7387,"ĠÅĿancon":7388,"Ġestonta":7389,"Tre":7390,"Ġjur":7391,"Ġsincer":7392,"Ġabsolute":7393,"ĠRenkon":7394,"Ġniveloj":7395,"ĠSamtempe":7396,"ĠKoreio":7397,"teblaj":7398,"ĠKatalunio":7399,"ws":7400,"tinon":7401,"parolis":7402,"Ġarkitek":7403,"Ġtalk":7404,"tren":7405,"tivon":7406,"Ġekspli":7407,"Ġbezono":7408,"gua":7409,"'.":7410,"uis":7411,"Ġprokras":7412,"Ġtemis":7413,"ĠVladi":7414,"Ġdefendi":7415,"oria":7416,"ĠListo":7417,"Ġlaboroj":7418,"ĠSon":7419,"ĠKatolika":7420,"ĠKolombio":7421,"Ġpoloj":7422,"Ġfenomen":7423,"Ġ1950":7424,"Cen":7425,"Ġinvers":7426,"Ġnub":7427,"Ġindas":7428,"Ġparolado":7429,"fla":7430,"lic":7431,"Ġpordon":7432,"ĠNiÄĿ":7433,"Ġlanda":7434,"Ġeblis":7435,"Ġkontrolo":7436,"Ġraporton":7437,"Ġkontinento":7438,"ĠÄĪeÄ¥os":7439,"Ġsens":7440,"Ġkian":7441,"ĠKara":7442,"Ġtiutempe":7443,"Ġpasinteco":7444,"ĠÂ»,":7445,"aÄĿa":7446,"ĠmalÄĿus":7447,"Ġmalferma":7448,"ss":7449,"Ġsenti":7450,"Ġmulton":7451,"ĠbuÅĿo":7452,"ĠetendiÄĿas":7453,"AJ":7454,"Ġmizer":7455,"Ġelekton":7456,"enio":7457,"Ġfortaj":7458,"Ġgras":7459,"umita":7460,"Ġeblon":7461,"ĠMondo":7462,"Ġgastoj":7463,"Ġserioza":7464,"ĠCam":7465,"ĠRobert":7466,"Ġsupozeble":7467,"ĠÅĿu":7468,"ĠmesaÄĿon":7469,"entaj":7470,"Ġvel":7471,"Ġalveno":7472,"dajxo":7473,"Ġnekre":7474,"Ã¼n":7475,"Ġraportis":7476,"uld":7477,"emoni":7478,"Ġsignoj":7479,"ĠEDE":7480,"Ġtrian":7481,"hem":7482,"plik":7483,"Ġmalven":7484,"poka":7485,"Ġkomisiono":7486,"Ġrid":7487,"ĠlaÅŃlonge":7488,"cht":7489,"ĠCommons":7490,"ingen":7491,"ĠFern":7492,"Ġorigine":7493,"ebo":7494,"ĠSirio":7495,"Ġbezonoj":7496,"timo":7497,"ĠCivito":7498,"Ġagen":7499,"ĠÄīer":7500,"Ġinterrila":7501,"Ġdoktor":7502,"Ġekonomiaj":7503,"____":7504,"Ġ37":7505,"Ġ||":7506,"ĠinaÅŃgu":7507,"Ġhin":7508,"Ġhuman":7509,"Ġmaga":7510,"Ġflugo":7511,"Ġplenumas":7512,"win":7513,"orus":7514,"Ġjud":7515,"Ġeraroj":7516,"Ġgren":7517,"cos":7518,"Ġkontraux":7519,"miloj":7520,"kcidente":7521,"ĠNovjor":7522,"Ġapliki":7523,"ĠaÄī":7524,"ted":7525,"donis":7526,"Ġart":7527,"Ġspirita":7528,"koloj":7529,"cienco":7530,"ot":7531,"Ã¼r":7532,"play":7533,"Sub":7534,"Ġdume":7535,"Ġfremda":7536,"ĠTek":7537,"landon":7538,"Ġsuk":7539,"Ġpedago":7540,"AL":7541,"Ġagas":7542,"Ġestante":7543,"Ġigis":7544,"Ġriveroj":7545,"Ġkomuniki":7546,"Ġtaskoj":7547,"\"),":7548,"ĠIu":7549,"Ġfido":7550,"reative":7551,"ĠDok":7552,"Ġliter":7553,"ĠLegu":7554,"Ġdoktoro":7555,"trajn":7556,"Ġspecoj":7557,"Nov":7558,"tiloj":7559,"ĠPon":7560,"uskri":7561,"fir":7562,"Ġsudori":7563,"Ġfolioj":7564,"Par":7565,"ji":7566,"Ġpord":7567,"veturi":7568,"ĠloÄĿejo":7569,"Ġasertis":7570,"Ġsku":7571,"Ġsidas":7572,"Ġforigo":7573,"Ġkoni":7574,"Ġplimul":7575,"Ġfrenez":7576,"Ġakademi":7577,"ulinoj":7578,"Gra":7579,"Ġpolitikistoj":7580,"ĠModulo":7581,"Äīar":7582,"ĠKr":7583,"Ġinterkonsento":7584,"Ġ600":7585,"ANTO":7586,"tetoj":7587,"Ġglo":7588,"ĠIrako":7589,"Ġkostas":7590,"Ġlernej":7591,"Ġsolen":7592,"Ġelpens":7593,"Ġtrezor":7594,"ĠÄīiel":7595,"Ġsciencaj":7596,"Ġcxu":7597,"Ġkontribui":7598,"ÅĿajn":7599,"ĠUnesko":7600,"Ġ{\\":7601,"Ġkalkuli":7602,"ander":7603,"Ġstelo":7604,"Ġmelo":7605,"Ġdefendo":7606,"For":7607,"Ġske":7608,"ĠserÄīis":7609,"istaj":7610,"palo":7611,"wicz":7612,"ktanto":7613,"Ġbier":7614,"ĠSz":7615,"duro":7616,"ĠChris":7617,"Ġkampanjo":7618,"Ġpur":7619,"mez":7620,"Ġveraj":7621,"Ġturo":7622,"ĠaÅŃtomo":7623,"Ġmalof":7624,"ĠSocieto":7625,"98":7626,"Ġnelonge":7627,"voja":7628,"Ġpravas":7629,"Ġescepte":7630,"Or":7631,"mile":7632,"ĠHor":7633,"aba":7634,"Ġcxiu":7635,"IL":7636,"Ġkrim":7637,"Ġmuroj":7638,"Ã³w":7639,"Ġkandidatoj":7640,"ĠGaza":7641,"Ġorgano":7642,"rigi":7643,"ĠEK":7644,"Ġherb":7645,"Ġaktivuloj":7646,"nor":7647,"wer":7648,"Ġspon":7649,"dite":7650,"Ġsamseks":7651,"Ġprovizi":7652,"ĠtranÄī":7653,"Ġjunulara":7654,"ball":7655,"ĠBudapeÅĿto":7656,"Ġnutra":7657,"æľĪ":7658,"Ġskribo":7659,"ĠParo":7660,"Ġproksimaj":7661,"Ġakceptita":7662,"Ġjenaj":7663,"Ġfem":7664,"viÄĿas":7665,"Ġtiele":7666,"ĠNobel":7667,"Ġopinioj":7668,"ĠstreÄī":7669,"Ġ42":7670,"veturis":7671,"guloj":7672,"Ġsurfaco":7673,"Ġkovras":7674,"tego":7675,"Ġdefinition":7676,"The":7677,"Ġsuver":7678,"Ġ~":7679,"Ġtroveblas":7680,"Ġeksciis":7681,"kl":7682,"Multaj":7683,"âĢī":7684,"ĠUsti":7685,"Ġesplori":7686,"ĠTutmonda":7687,"ktantoj":7688,"gula":7689,"Ãł":7690,"mann":7691,"Ã¶r":7692,"ksem":7693,"Ġamaskomunikiloj":7694,"Ġmarks":7695,"Ġsankte":7696,"ĠKopenhago":7697,"feron":7698,"Ġnunaj":7699,"Ġceremonio":7700,"Ġpereis":7701,"Ġforlasi":7702,"ankaÅŃ":7703,"erno":7704,"ĠÄĿiajn":7705,"Ġklasoj":7706,"zaÄµo":7707,"Ġnulo":7708,"Ġefike":7709,"ĠFree":7710,"Ġsumo":7711,"Ġmir":7712,"ĠSaint":7713,"Ġsubskribis":7714,"ĠLor":7715,"acian":7716,"lina":7717,"canoj":7718,"Ġeterna":7719,"pata":7720,"ktato":7721,"ecaj":7722,"Ġnekonata":7723,"ug":7724,"ĠSuper":7725,"Ġidoj":7726,"Ġmapoj":7727,"Ġlinioj":7728,"sign":7729,"Ġrestari":7730,"plenaj":7731,"andar":7732,"Ġutilas":7733,"fto":7734,"âĢİ":7735,"gataj":7736,"Ġmoder":7737,"dav":7738,"ĠHit":7739,"venoj":7740,"Ġsamkiel":7741,"pud":7742,"Ġaspekton":7743,"Ġkulturon":7744,"Ġbabi":7745,"manta":7746,"Ġ49":7747,"ecan":7748,"entojn":7749,"Ġano":7750,"dekso":7751,"Ġkelke":7752,"Ġbazaj":7753,"Ġklopodas":7754,"ĠrifuÄĿ":7755,"Ha":7756,"Ġflank":7757,"Ġdonu":7758,"Ġhundo":7759,"by":7760,"Ġnigr":7761,"Ġhttps":7762,"Ġghin":7763,"ĠVjetnam":7764,"Ġplaco":7765,"ĠJesu":7766,"89":7767,"ĠÅĿto":7768,"Ġlegado":7769,"Ã£":7770,"Ġrigardon":7771,"ĠMadrido":7772,"Î±":7773,"ĠSol":7774,"vir":7775,"usz":7776,"donio":7777,"Ġinsul":7778,"Ġpotenca":7779,"Ġpalestin":7780,"ismoj":7781,"Ġgig":7782,"ĠtaÄī":7783,"Ġesperantan":7784,"Ġ400":7785,"Ġinformas":7786,"Ġkapitalismo":7787,"ĠFederacio":7788,"Ġigas":7789,"Ġforgesu":7790,"UR":7791,"Ġmuze":7792,"Ġalfron":7793,"ĠjuÄĿis":7794,"Ġimpreson":7795,"Du":7796,"Ġavi":7797,"ĠKD":7798,"Ġkadro":7799,"Ġterur":7800,"ÇĶ":7801,"rata":7802,"ĠKia":7803,"Ġdato":7804,"Ġpioni":7805,"Ġkurs":7806,"ĠmontriÄĿis":7807,"Ġaperi":7808,"Ġpunktoj":7809,"ĠEkonom":7810,"Ġgli":7811,"Ġesperante":7812,"Tiuj":7813,"Ġdekli":7814,"Ġekonomi":7815,"Ģè":7816,"logoj":7817,"Ġliberaj":7818,"Ġutili":7819,"Ġminimume":7820,"Ġdormo":7821,"ĠFacebook":7822,"Ġ01":7823,"Ġdiskutoj":7824,"Ġdezerto":7825,"MO":7826,"Ġelemento":7827,"Ä¥io":7828,"Kro":7829,"rinte":7830,"Ġsubtenis":7831,"Ġpliajn":7832,"ĠKir":7833,"piskopo":7834,"ĠPakistano":7835,"ĠteÄ¥":7836,"Ġeksa":7837,"Ġfojojn":7838,"pia":7839,"ĠAnt":7840,"Ġstrange":7841,"ĠVere":7842,"Ġnordori":7843,"Ġorganizas":7844,"Ġsele":7845,"ĠelÅĿuti":7846,"Ġforumo":7847,"Ġreligioj":7848,"Ġmam":7849,"Ġfilon":7850,"ĠmaÅĿino":7851,"HodiaÅŃ":7852,"ĠÄīagren":7853,"Ġgol":7854,"erika":7855,"Ġrefle":7856,"Ġmontran":7857,"Ġvestoj":7858,"Ġgasti":7859,"ĠneÄĿo":7860,"Ġkolo":7861,"ĠÄīefo":7862,"Ġvarias":7863,"ĠKana":7864,"ĠMes":7865,"Ġdiverseco":7866,"gne":7867,"Ġamikojn":7868,"Ġrakont":7869,"ĠaranÄĿi":7870,"Eble":7871,"German":7872,"ĠBrus":7873,"ĠGab":7874,"Ġbezonata":7875,"ĠUrbo":7876,"Ġaplika":7877,"Ġteknologio":7878,"Koreio":7879,"atoj":7880,"pion":7881,"Ġlaborista":7882,"Ġtrio":7883,"Poste":7884,"Ġafab":7885,"Ġmonatojn":7886,"Ġpolitikisto":7887,"ĠMale":7888,"ĠBus":7889,"Ġkuir":7890,"Ġpopolon":7891,"Ġradika":7892,"ĠÄīambron":7893,"ms":7894,"rantaj":7895,"Ġlastatempe":7896,"Ġtrupoj":7897,"Ġkonstitucio":7898,"omas":7899,"Ġlandaj":7900,"ĠNeces":7901,"Ġtereno":7902,"Ġsituanta":7903,"videbla":7904,"Ġhelpe":7905,"Ġasoci":7906,"Ġbrusto":7907,"xis":7908,"Ġfestivalo":7909,"lima":7910,"Ġkunteksto":7911,"Ġfier":7912,"Ġesploro":7913,"ĠTradu":7914,"Ð¼":7915,"Ġkunpor":7916,"ĠNom":7917,"ĠÅĿil":7918,"Kiu":7919,"ĠokupiÄĿas":7920,"gma":7921,"grafo":7922,"Ġesplorado":7923,"ĠBulgario":7924,"Ġmalle":7925,"ĠMark":7926,"Ġesploroj":7927,"Ġmenciis":7928,"ĠNorvegio":7929,"ĠreÄĿa":7930,"ĠAIS":7931,"kore":7932,"fektive":7933,"Ġkonsideris":7934,"Ġkin":7935,"ĠKonferenco":7936,"ĠRegis":7937,"Ġviktimoj":7938,"ÄĿintaj":7939,"Ġokupas":7940,"reda":7941,"Ġkvanton":7942,"ĠEstraro":7943,"nur":7944,"Ġmikro":7945,"Ġmemstare":7946,"ĠRam":7947,"Ġorganiza":7948,"Ġmallonge":7949,"Ġveturis":7950,".-":7951,"Ce":7952,"Ġfleks":7953,"laude":7954,"Ġsila":7955,"Ġsindika":7956,"Ġkunlabori":7957,"Ġplenumis":7958,"voro":7959,"diono":7960,"Ġenketoj":7961,"Uni":7962,"ĠaÅŃdas":7963,"ĠKontraÅŃ":7964,"ĠZa":7965,"tions":7966,"Ġadapti":7967,"Ġplezuro":7968,"ĠkuÅĿis":7969,"kcia":7970,"Ġekzist":7971,"ĠanstataÅŃe":7972,"Ġprovizas":7973,"Ġyou":7974,"istojn":7975,"ĠFranc":7976,"Ġkoloroj":7977,"Ġgermanan":7978,"Ġevoluon":7979,"plon":7980,"ĠpaÅĿoj":7981,"disku":7982,"sona":7983,"flor":7984,"dion":7985,"tria":7986,"Ġvok":7987,"ĠbranÄīo":7988,"ĺĩ":7989,"art":7990,"ĠJES":7991,"Ġcivili":7992,"ardeno":7993,"Ġmaterialon":7994,"undoj":7995,"Ġkamp":7996,"ĠAliflanke":7997,"Ġargumentoj":7998,"adi":7999,"ĠEx":8000,"Ġarta":8001,"Ġbatali":8002,"ime":8003,"tikajn":8004,"ĠTuj":8005,"ĠGor":8006,"Ġkritiko":8007,"antajn":8008,"Äµa":8009,"tuo":8010,"Ġdisvastigi":8011,"Ġintervjuo":8012,"88":8013,"Ġdelegi":8014,"Ġrekom":8015,"ĀĀĀĀĀĀĀĀĀĀĀĀĀĀĀĀ":8016,"Ġportugala":8017,"OS":8018,"feli":8019,"ÑĮ":8020,"rup":8021,"lavo":8022,"tipo":8023,"Ġfrun":8024,"Ġtrakti":8025,"Ġevoluis":8026,"Ġliteratur":8027,"Ġkatolikaj":8028,"ĠanÄĿ":8029,"Ġtaksi":8030,"Ġdecidas":8031,"ct":8032,"Ġvino":8033,"Ġmos":8034,"Ġretum":8035,"Ġjene":8036,"Ġfilozofo":8037,"AP":8038,"zil":8039,"Ã¡s":8040,"Ġisra":8041,"Ġpene":8042,"ĠÄľuste":8043,"Ġdestin":8044,"Ġzorgas":8045,"ĠISBN":8046,"è¡Ģè":8047,"ĠSep":8048,"Ġbazon":8049,"Ġorganizantoj":8050,"Ġesperantistojn":8051,"Ġmodifi":8052,"Ġ{{":8053,"ĺĩæľĪ":8054,"è¡ĢèĺĩæľĪ":8055,"ĠFal":8056,"Ġkantas":8057,"ðŁĺ¨":8058,"EM":8059,"valoj":8060,"prenas":8061,"Ġplejparto":8062,"ĠOkaz":8063,"df":8064,"Ġ44":8065,"Ven":8066,"kiÄĿis":8067,"kongreso":8068,"Ġfinna":8069,"rigardis":8070,".).":8071,"trans":8072,"ĠÄīapitro":8073,"Ġinterese":8074,"Ġregula":8075,"fru":8076,"berio":8077,"Ġprofesiaj":8078,"Ġmenciitaj":8079,"Ġoli":8080,"Ġsendas":8081,"ĠAndreo":8082,"ĠUstimenko":8083,"ary":8084,"Ġhim":8085,"Ġplat":8086,"Ġklimato":8087,"Ġvapor":8088,"ðŁĺ¨ðŁĺ¨":8089,"Ġmalgaj":8090,"ĠmalriÄī":8091,"ficiala":8092,"Ġdecidoj":8093,"Ġinfluon":8094,"Ġiniciato":8095,"setti":8096,"vadis":8097,"Ġrub":8098,"vigi":8099,"Ġintereson":8100,"petalo":8101,"Ġunuajn":8102,"Ġvendre":8103,"Ġebligis":8104,"ÅĿtato":8105,"Ġatmos":8106,"ĠJordan":8107,"Ġekkriis":8108,"Ġ]":8109,"Ġkis":8110,"Ġprogreso":8111,"Ġruin":8112,"Ġmalsamajn":8113,"tikoj":8114,"Ġsimil":8115,"Ġkataluna":8116,"bul":8117,"divi":8118,"Ġglute":8119,"Ġplor":8120,"Ġneceso":8121,"tto":8122,"style":8123,"Ġfono":8124,"ferm":8125,"rinda":8126,"ÄĿadis":8127,"Ġprintempo":8128,"Ġoriginalan":8129,"Ġtimis":8130,"Ġdufoje":8131,"Ġpostaj":8132,"ciklope":8133,"ĠBla":8134,"soci":8135,"bona":8136,"Ġintencis":8137,"Ġchu":8138,"ĠÄµurnalisto":8139,"Ġalfabeto":8140,"ctor":8141,"Ġdefi":8142,"Ġgene":8143,"ĠaÅŃtuno":8144,"Ġfias":8145,"Ġproponoj":8146,"jaro":8147,"Ñĭ":8148,"ĠsenÄīese":8149,"yo":8150,"Ġpse":8151,"Ġangle":8152,"-,":8153,"ÅĽ":8154,"Ġfeti":8155,"Ġfori":8156,"ĠKiom":8157,"Ġmalsanoj":8158,"falo":8159,"Ġdecidon":8160,"Ġrespekto":8161,"Ġelektitaj":8162,"2015":8163,"Sh":8164,"bris":8165,"Ġtan":8166,"Ġforigita":8167,"Ġfondinto":8168,"ĠJulio":8169,"Ġmeritas":8170,"xon":8171,"ĠMu":8172,"Ġplian":8173,"Ġ1987":8174,"gebla":8175,"kvali":8176,"Ġdenun":8177,"cus":8178,"tikolo":8179,"Ġrakonti":8180,"Ġvalora":8181,"Ġordono":8182,"Ġuniversitatoj":8183,"lantaro":8184,"mun":8185,"tte":8186,"Ġintertra":8187,"bela":8188,"Ġï»¿":8189,"uras":8190,"ĠKali":8191,"ĠSloven":8192,"ĠPaci":8193,"lanko":8194,"Ġdiskrimin":8195,"Ġrab":8196,"ĠSimp":8197,"Ġglaci":8198,"vara":8199,"Ġsentoj":8200,"ĠleviÄĿis":8201,"Ġnuda":8202,"Ġproduktis":8203,"joroj":8204,"tima":8205,"ĠJon":8206,"Ġinformado":8207,"ĠaÅŃtomata":8208,"ln":8209,"Ġsud":8210,"lasta":8211,"ĠIzraeli":8212,"Ġkriis":8213,"Ġit":8214,"ĠiÄĿos":8215,"Ġprocentoj":8216,"laso":8217,"Ġsocieto":8218,"Ġmalbonaj":8219,"Ġkonsil":8220,"Ġprofesi":8221,"ĠVenezu":8222,"ĠSar":8223,"Ġkorp":8224,"Ġdana":8225,"Ġekzameno":8226,"dosi":8227,"lori":8228,"mus":8229,"Ġpremis":8230,"Ġribelo":8231,"ĠÂ°":8232,"ĠIom":8233,"Ġkonscio":8234,"ĠIndone":8235,"Ġfrag":8236,"Ġkalendaro":8237,"ĠHungara":8238,"Ġreveno":8239,"Ġvenu":8240,"ĠAnkoraÅŃ":8241,"Ġturni":8242,"Ġrondo":8243,"ĠNigra":8244,"Ġnai":8245,"Ġkantojn":8246,"Ġbrazila":8247,"spaco":8248,"Ġlig":8249,"rajta":8250,"Ġinteresajn":8251,"fem":8252,"Ġmanuskri":8253,"Ġmastrum":8254,"ĠLes":8255,"ĠCreative":8256,"Ġfakuloj":8257,"Ġ47":8258,"nia":8259,"ÃŁ":8260,"Ġinfek":8261,"ĠÅŃ":8262,"ĠÄīinaj":8263,"Ġbiero":8264,"ĠÅľan":8265,"ĠBea":8266,"ĠÄīarto":8267,"Ġmodif":8268,"Ġdinastio":8269,"ĠMicha":8270,"ÅĦski":8271,"radis":8272,"cias":8273,"ĠEri":8274,"Ġposteno":8275,"Ġreprezentanto":8276,"ĠretpoÅĿton":8277,"bek":8278,"Ġ[âĢ¦]":8279,"bach":8280,"ĠplaÄīas":8281,"Ġdorso":8282,"Ġkongreson":8283,"Kion":8284,"eu":8285,"itoj":8286,"ĠmanÄĿis":8287,"Ġkutimo":8288,"Ġmiskompren":8289,"Ġmallumo":8290,"kvar":8291,"Ġdiser":8292,"metas":8293,"Ġpapero":8294,"Ġvintro":8295,"Ġmortinta":8296,"84":8297,"ĠKla":8298,"rajto":8299,"Ġvortaroj":8300,"hou":8301,"lamo":8302,"Ġtrankvile":8303,"Ġmanieroj":8304,"piÄīo":8305,"ĠEkz":8306,"Ġpatron":8307,"ĠHenriko":8308,"Ġortodo":8309,"ĠAntonio":8310,"è¡ĢèĺĩæľĪè¡ĢèĺĩæľĪ":8311,"Ġambas":8312,"ĠÄµet":8313,"Ġligiloj":8314,"Ġdiplom":8315,"ĠAnticipo":8316,"Ġento":8317,"Ġmembr":8318,"Ġkosto":8319,"Bo":8320,"Ġgal":8321,"Ġsuben":8322,"fratoj":8323,"Ġrestoracio":8324,"fona":8325,"Ġlegu":8326,"à¤":8327,"Ġperfekte":8328,"Kar":8329,"Ġkonferen":8330,"Ġinteresas":8331,"Ġstud":8332,"Ġgimna":8333,"foro":8334,"Ġadvo":8335,"Ġkutim":8336,"Ġaspektoj":8337,"Ġetos":8338,"alisma":8339,"Ġpreparis":8340,"Ġdepende":8341,"ĠdanÄĿero":8342,"DF":8343,"ĠDen":8344,"Ġromia":8345,"Ġpluvo":8346,"Ġprenu":8347,"ĠWiki":8348,"Ġenskrib":8349,"Komen":8350,"Ġpentristo":8351,"ĠBaldaÅŃ":8352,"cere":8353,"wit":8354,"display":8355,"Ġhaveno":8356,"torioj":8357,"Ġtenas":8358,"Ġklientoj":8359,"rilate":8360,"fami":8361,"Tiel":8362,"cerdo":8363,"gni":8364,"Ġferi":8365,"Ġtekniko":8366,"ĠOndo":8367,"ork":8368,"Ġformojn":8369,"Ġkarakteron":8370,"Ġcelojn":8371,"Jun":8372,"Ġrealo":8373,"Ġrigi":8374,"Ġpenis":8375,"ĠvojaÄĿis":8376,"vidente":8377,"ĠÅĿtono":8378,"Ġripar":8379,"ĠfariÄĿos":8380,"Ġindividuaj":8381,"ĠdediÄīita":8382,"ĠPub":8383,"mantoj":8384,"Ġgazetaro":8385,"92":8386,"Ġprole":8387,"emp":8388,"ĠpaÄĿojn":8389,"Ġkongresanoj":8390,"Ġtrejnado":8391,"Ġepizo":8392,"500":8393,"ĠNE":8394,"Ġkonservas":8395,"supra":8396,"uda":8397,"ĠInstru":8398,"ederacio":8399,"ĠfeliÄīo":8400,"ĠneÅŃtrala":8401,"Ġ_":8402,"Ġbol":8403,"piÄīoj":8404,"Ġdecid":8405,"Ġmame":8406,"daÄµon":8407,"Ġ1919":8408,"nudaÄµo":8409,"umenta":8410,"Ġsvisa":8411,"Ġaf":8412,"ĠBata":8413,"iÄĿante":8414,"nive":8415,"Ġeldonejo":8416,"Vidu":8417,"Ġkapitalo":8418,"Ġevangelio":8419,"num":8420,"ĠMil":8421,"Ġavan":8422,"Ġkadav":8423,"Ġeksta":8424,"tigoj":8425,"donu":8426,"Ġfoton":8427,"Ġvest":8428,"Ġorigino":8429,"kordo":8430,"Ġfirm":8431,"Kongreso":8432,"displaystyle":8433,"Ġmet":8434,"Ġrol":8435,"Ġsilento":8436,"tene":8437,"Ġpozicion":8438,"Ġmovadoj":8439,"Ġfiguro":8440,"dres":8441,"ĠBela":8442,"ĠAnstataÅŃ":8443,"Ġoficistoj":8444,"aton":8445,"ĠPrus":8446,"ĠkontraÅŃdi":8447,"Ġjusta":8448,"San":8449,"Ġtum":8450,"Ġvikipedi":8451,"Ġcerbo":8452,"ĠGermanujo":8453,"Ġdomin":8454,"Åĳ":8455,"cip":8456,"ĠGeo":8457,"Ġkreo":8458,"bato":8459,"Ġkvindek":8460,"cii":8461,"komer":8462,"ĠRich":8463,"Ġaku":8464,"Ġfortojn":8465,"Ġekspedi":8466,"Ġkanton":8467,"adoj":8468,"klaku":8469,"Ġoficialan":8470,"Ġregiona":8471,"Ġpolitikon":8472,"Ġmalnovan":8473,"Ġdorm":8474,"Ġkonserva":8475,"ĠÅĿablono":8476,"Ġegip":8477,"turojn":8478,"Ġkomunaj":8479,"ĠLeon":8480,"hej":8481,"ĠØ":8482,"laÄµoj":8483,"Ġ43":8484,"Ġsperton":8485,"Ġdirekte":8486,"ĠKristnas":8487,"ĠVlaÄījo":8488,"Ġhospita":8489,"ĠMongo":8490,"Ġregulaj":8491,"datum":8492,"Ġkunordi":8493,"Ġkapabla":8494,"Ġkongresa":8495,"ĠGeorge":8496,"Ġprivi":8497,"Ġatento":8498,"Ġnord":8499,"Ġligilon":8500,"Ġ1905":8501,"Ġstrategi":8502,"listoj":8503,"Ġgro":8504,"Ġpago":8505,"Ġdonaco":8506,"Ġkreskanta":8507,"Sin":8508,"tatoj":8509,"Ġaktor":8510,"Ġfilmon":8511,"Ġdifinas":8512,"Ġinstitucio":8513,"Ġaposto":8514,"Ġfamilia":8515,"logie":8516,"Ġdolor":8517,"Ġeka":8518,"Ġprosper":8519,"Ġsenmo":8520,"Ġcertas":8521,"Ġsukcesos":8522,"Ġimpon":8523,"Ġedzin":8524,"ĠVjetnamio":8525,"BC":8526,"vy":8527,"laÄµo":8528,"Ġlaci":8529,"Äīojn":8530,"Ġmontro":8531,"Ġlingvan":8532,"Ġtrej":8533,"Ġknabinoj":8534,"arth":8535,"gaze":8536,"ĠBiblioteko":8537,"Ġrando":8538,"Ġmodifita":8539,"Ġpel":8540,"ĠOS":8541,"Ġpasint":8542,"Ġnajbaraj":8543,"ĠKons":8544,"ÅŃropa":8545,"Ġtiamaniere":8546,"Ġaspektis":8547,"gla":8548,"Ġkonsum":8549,"Ġcentoj":8550,"zerbaj":8551,"poni":8552,"forto":8553,"Ġfakul":8554,"Ġkomunum":8555,"Ġegalas":8556,"cki":8557,"ĠkaÅŃzoj":8558,"fluo":8559,"Ġgejun":8560,"Krom":8561,"eran":8562,"Ġmorton":8563,"Ġrenvers":8564,"ÂĶ":8565,"Ġdungi":8566,"Ġkomisi":8567,"Ġgvid":8568,"ĠpornaÄµo":8569,"Ġ(...)":8570,"ĠerotikaÄµo":8571,"entis":8572,"Ġkost":8573,"temaj":8574,"Neni":8575,"gs":8576,"omio":8577,"Ġportre":8578,"ĠdanÄĿera":8579,"Ġanstata":8580,"Ġkemi":8581,"ternacia":8582,"Ġspecife":8583,"Ġfunkcioj":8584,"Ġkruc":8585,"Ġatakoj":8586,"Ġrevizi":8587,"Ġkvina":8588,"ĠEstonio":8589,"Alia":8590,"Ġhan":8591,"ĠaÅŃstra":8592,"ĠarÄĿ":8593,"Ġaldone":8594,"Ġfidin":8595,"Ġsukceson":8596,"Ġinsis":8597,"ĠAtlan":8598,"Ġagrikulturo":8599,"ĠâĢİ":8600,"nivelo":8601,"Ġari":8602,"heim":8603,"Ġelsendo":8604,"His":8605,"Ġfrekven":8606,"Ġsezono":8607,"lulo":8608,"ĠÄĪirkaÅŃ":8609,"ksitaj":8610,"utime":8611,"Ġrekompen":8612,"klon":8613,"ketojn":8614,"Ġkontrau":8615,"ĠVenezuelo":8616,"Ġtraktas":8617,"Ġkontribuoj":8618,"Ġjara":8619,"Ġkomercaj":8620,"Ġreciproke":8621,"XXX":8622,"zberg":8623,"igus":8624,"ĠEspero":8625,"ice":8626,"anaj":8627,"Ġfuneb":8628,"Ġelektra":8629,"ĠRoter":8630,"Ġslo":8631,"Ġ46":8632,"feti":8633,"Ġkristanaj":8634,"ĠVas":8635,"Ġpasas":8636,"nuda":8637,"Ġprovincoj":8638,"Ġgraveco":8639,"Ġdevi":8640,"Ġpolu":8641,"ĠAbra":8642,"Ġaparato":8643,"Ġsonas":8644,"tve":8645,"temo":8646,"rina":8647,"Ġmalkovri":8648,"Ġkreinto":8649,"Ġpermesi":8650,"Ġpropr":8651,"Ġlasas":8652,"ĠTogo":8653,"Ġpastr":8654,"Ġhidro":8655,"Î¿":8656,"mane":8657,"ĠSpeci":8658,"ĠHindio":8659,"ĠAfganio":8660,"ptoj":8661,"maÅĿ":8662,"chel":8663,"ĠPoz":8664,"Kelkaj":8665,"ĠÅĿipoj":8666,"gxon":8667,"Ġatakis":8668,"ĠScienca":8669,"Ġtage":8670,"Ġbongus":8671,"Ġalkoho":8672,"EG":8673,"Ġporti":8674,"denta":8675,"ĠokazaÄµoj":8676,"Ġenirejo":8677,"miks":8678,"Ġkomputiloj":8679,"Ġmalforta":8680,"has":8681,"alt":8682,"ĠFab":8683,"Ġdetalojn":8684,"ojo":8685,"Ġsateli":8686,"ĠaÅŃskultis":8687,"Ekzistas":8688,"Ġsurfa":8689,"Ġservojn":8690,"Ġ41":8691,"Ġflughaveno":8692,"intajn":8693,"poten":8694,"grado":8695,"ktata":8696,"ĠToki":8697,"ĠheredaÄµo":8698,"bjek":8699,"Ġformor":8700,"iÄĿinte":8701,"Tiam":8702,"Ġgajni":8703,"Ġsupr":8704,"Ġpropagando":8705,"Äħ":8706,"ĠIN":8707,"Ġimpos":8708,"Ġarkite":8709,"RI":8710,"Ġsensen":8711,"Ġkorto":8712,"Ġofice":8713,"ĠLuksem":8714,"Ġinvitis":8715,"Ġmalpe":8716,"Ġsidi":8717,"ĠLat":8718,"Ġkanti":8719,"Ġpriskribis":8720,"Ġpruvi":8721,"Ġmalaltaj":8722,"Ġmezepoko":8723,"Ġkonstati":8724,"Ġfur":8725,"ĠmallaÅŃ":8726,"Ġverkas":8727,"ĠjuÄĿ":8728,"Ġsonor":8729,"gosla":8730,"----":8731,"dul":8732,"fano":8733,"koti":8734,"kursoj":8735,"ĠNapole":8736,"Ġmencii":8737,"ĠPrinco":8738,"Ġvegeta":8739,"Ġdimen":8740,"Ġtertre":8741,"amori":8742,"Ġtatuajes":8743,"moro":8744,"Ġnep":8745,"pugo":8746,"belulino":8747,"ĠTraktato":8748,"Ġsubstre":8749,"ronon":8750,"ĠdaÅŃro":8751,"Ġkursojn":8752,"Ġdonacoj":8753,"Ġmani":8754,"Ġfervojo":8755,"Ġ1940":8756,"ATO":8757,"Ġdiferenci":8758,"Ġfinon":8759,"ĠRajtoj":8760,"Ã¦":8761,"ĠAp":8762,"Ġ1917":8763,"ĠNepalo":8764,"Ġpublikigas":8765,"ĠvoÄīon":8766,"kr":8767,"kum":8768,"gram":8769,"Ġbien":8770,"Ġpure":8771,"wo":8772,"Ġ1000":8773,"ĠUl":8774,"Ġpag":8775,"Ġefikon":8776,"ĠriÄīaj":8777,"vna":8778,"cico":8779,"pova":8780,"Ġring":8781,"Ġkapitalis":8782,"ĠFundamen":8783,"Ġrigardu":8784,"Ġvenontaj":8785,"ED":8786,"Ze":8787,"Ġskato":8788,"deman":8789,"Ġmalsama":8790,"Ġatend":8791,"Ġpreciz":8792,"talino":8793,"Ġparadi":8794,"ĠVirgulino":8795,"fonoj":8796,"Ġjunularo":8797,"Ġofertas":8798,"cata":8799,"mamo":8800,"ĠnovaÄµo":8801,"Ġkapabloj":8802,"Ġ1948":8803,"Ġharmoni":8804,"ĠAngla":8805,"ktulo":8806,"ward":8807,"Ġalproksim":8808,"ĠAdam":8809,"Ġmateno":8810,"ĠÄľene":8811,"Ġdiferencoj":8812,"dorf":8813,"ĠTeo":8814,"ĠBis":8815,"Ġplejmulto":8816,"Ġkorid":8817,"Ġareon":8818,"ĠNovjorko":8819,"hx":8820,"Ġgi":8821,"Ġperdo":8822,"Ġleteroj":8823,"Ġnajbara":8824,"kantoj":8825,"Ġkatedralo":8826,"sider":8827,"Ġdekstre":8828,"Ġrevuon":8829,"jaran":8830,"urs":8831,"Ġnekuti":8832,"Ġsuba":8833,"vario":8834,"Ġinfluis":8835,"ĠreÄĿino":8836,"Ġkomponisto":8837,"atajn":8838,"bras":8839,"yd":8840,"ĠKra":8841,"Ġfilm":8842,"TI":8843,"mamoj":8844,"ĠaÄĿa":8845,"leton":8846,"Ġmalbono":8847,"Ġforpe":8848,"Ġligilo":8849,"ĠfetiÄīismo":8850,"sis":8851,"Ñĩ":8852,"ĠMus":8853,"Ġ1918":8854,"Ġkolom":8855,"ĠÅľia":8856,"kaco":8857,"Ġbun":8858,"Ġsciencoj":8859,"Ġparolata":8860,"peci":8861,"Ġ800":8862,"Ġabomen":8863,"Ġmalfrua":8864,"85":8865,"cicoj":8866,"ĠTokio":8867,"Ġmastro":8868,"Ġdensa":8869,"Ġgenu":8870,"ĠQu":8871,"ĠJosÃ©":8872,"Las":8873,"cero":8874,"Ġesta":8875,"ĠNiko":8876,"Ġnacian":8877,"Ġklima":8878,"gluteoj":8879,"pugoj":8880,"vinte":8881,"oriento":8882,"ekshibicio":8883,"gluteo":8884,"mamego":8885,"mamegoj":8886,"civi":8887,"pitaj":8888,"Ġdiskut":8889,"Ġinternaciajn":8890,"95":8891,"Ġå":8892,"gener":8893,"Ġrubri":8894,"Ġreciproka":8895,"Ġbudh":8896,"ĠÄµurnalo":8897,"erotismo":8898,"Ġkomune":8899,"Ġbap":8900,"Ġinternaj":8901,"))":8902,"kokri":8903,"Ġekrano":8904,"jeviÄī":8905,"ĠJose":8906,"zerbajÄĿ":8907,"Ġetike":8908,"deto":8909,"ĠRevolucio":8910,"Ġtradukisto":8911,"Ġpeko":8912,"Ġjunulino":8913,"ĠBjalistoko":8914,"html":8915,"Ġfunkcion":8916,"Ġproviz":8917,"ĠBone":8918,"ĠGener":8919,"pono":8920,"toria":8921,"Ġsubjekto":8922,"Ġgvidas":8923,"logian":8924,"Ġsamajn":8925,"zeno":8926,"ĠpasaÄĿ":8927,"Ġpopularaj":8928,"Ġdisvasti":8929,"Ġproceso":8930,"Ġneevi":8931,"ĠPekino":8932,"fetiÄīismo":8933,"daro":8934,"tiu":8935,"Ġfum":8936,"lokoj":8937,"celist":8938,"midzi":8939,"ĠInfanoj":8940,"Ġaci":8941,"Ġsenton":8942,"Ġesprimoj":8943,"Ġmalferm":8944,"ĠIzraelidoj":8945,"elli":8946,"Ġ1939":8947,"tabuo":8948,"ĠBran":8949,"Äīiesulino":8950,"ĠWorld":8951,"OJ":8952,"langumi":8953,"Ġplie":8954,"dentoj":8955,"Ġeblaj":8956,"âĢĻ,":8957,"ques":8958,"seksumi":8959,"midzo":8960,"midzumo":8961,"sesdeknaÅŃi":8962,"Ġlernu":8963,"Ġbataloj":8964,"ĠInternational":8965,"83":8966,"sia":8967,"Ġilu":8968,"Ġdentoj":8969,"SS":8970,"osto":8971,"Ġtemojn":8972,"zeco":8973,"Ġkulti":8974,"Ġuzadon":8975,"kano":8976,"ĠDomo":8977,"Ġoftaj":8978,"Ġokulo":8979,"Ġpotenc":8980,"ÅĤo":8981,"Ġkristanismo":8982,"Ġkompi":8983,"Ġpublikigi":8984,"Ġtradicie":8985,"Ġmaleb":8986,"zito":8987,"ĠIvan":8988,"ĠFes":8989,"ĠMag":8990,"think":8991,"tegori":8992,"dismo":8993,"Ġstrukturoj":8994,"Lu":8995,"Ġplua":8996,"ĠaranÄĿis":8997,"Ġrezulton":8998,"Ġefekti":8999,"ĠbranÄīoj":9000,"Ġkatastrofo":9001,"])":9002,"ĠSoma":9003,"Ġpira":9004,"Ġkonsistis":9005,"Ġkongresejo":9006,"Ġresan":9007,"ĠIlia":9008,"Ġkolektis":9009,"ciis":9010,"ĠÄĿem":9011,"ont":9012,"Ġskalo":9013,"ĠlanÄīis":9014,"Ġgepatra":9015,"ciklopedio":9016,"dino":9017,"zaro":9018,"Ġmaluti":9019,"ĠFla":9020,"Ġstaton":9021,"Ġsolvon":9022,"Ġhered":9023,"Ġaliron":9024,"Ġartisto":9025,"Ġaldono":9026,"Ġeblo":9027,"Ġsacerdo":9028,"Ġrigardante":9029,"Ġenhavis":9030,"Ġkomunik":9031,"retario":9032,"ĠmanÄĿaÄµo":9033,"ters":9034,"Ġunuso":9035,"siko":9036,"Ġterminojn":9037,"Ġnivelon":9038,"Estis":9039,"Ġerarojn":9040,"ute":9041,"tiro":9042,"kes":9043,"titan":9044,"ĠindiÄĿ":9045,"Ġ$":9046,"Ġese":9047,"logis":9048,"Ġnegle":9049,"ĠDec":9050,"Ġmonumento":9051,"Ġfakton":9052,"Ġromi":9053,"Ġindiko":9054,"Ġamikeco":9055,"Ġripoz":9056,"ĠIndi":9057,"Ġelektoj":9058,"amik":9059,"Komun":9060,"ĠTute":9061,"ville":9062,"ĠfondiÄĿis":9063,"ĠPrezi":9064,"Ġpremion":9065,"Ġredukti":9066,"Ġpricelist":9067,"Ġimper":9068,"Ġinstancoj":9069,"ĠIndonezio":9070,"Ġvivantaj":9071,"tuala":9072,"ĠpaÄĿaro":9073,"Ġkrimo":9074,"Ġklarigo":9075,"ĠÄĿuas":9076,"Ġplenkreskuloj":9077,"AE":9078,"eba":9079,"Ġesperanton":9080,"ĠChu":9081,"2005":9082,"Ġenergion":9083,"ĠpseÅŃ":9084,"Ġunueco":9085,"Ġesting":9086,"Ġjunula":9087,"Ġdeputi":9088,"Ġribel":9089,"Ġokcidentaj":9090,"Afriko":9091,"raÅŃ":9092,"kunsi":9093,"jam":9094,"Ġmilitis":9095,"Ġfrat":9096,"Ġekzemplon":9097,"Ġpreciza":9098,"omente":9099,"Ġliberan":9100,"Ġkaptitaj":9101,"Ġ1968":9102,"Ġtransformi":9103,"Ġdevo":9104,"log":9105,"tantojn":9106,"Ġcar":9107,"ĠCO":9108,"ĠÄīirkaÅŃaÄµo":9109,"Ġfruktoj":9110,"Ġlernolibro":9111,"tantajn":9112,"profun":9113,"ĠKarl":9114,"ĠSerbio":9115,"ĠSor":9116,"Ġfajr":9117,"Ġenkondukis":9118,"rey":9119,"Ġeska":9120,"ĠHum":9121,"Ġmara":9122,"ponon":9123,"Ġtaksas":9124,"Ġfek":9125,"Ġlibr":9126,"Ġkomenca":9127,"Ġdanc":9128,"ght":9129,"lim":9130,"arado":9131,"Ġfilme":9132,"ĠÄĿust":9133,"Ġhipote":9134,"Ġfanto":9135,"ĠIII":9136,"Ġtatuaje":9137,"ism":9138,"Ġprezoj":9139,"vinco":9140,"Ġrilataj":9141,"turado":9142,"Ġdialogo":9143,"TML":9144,"ĠRoterdamo":9145,"ction":9146,"my":9147,"Ġdest":9148,"Ġligoj":9149,"Ġvesto":9150,"EI":9151,"keno":9152,"ĠEven":9153,"Ġsendita":9154,"Ġkvaza":9155,"dareco":9156,"veni":9157,"Ġmalagra":9158,"Ġmalproksima":9159,"Ġrevuoj":9160,"kiuj":9161,"Ġvidin":9162,"ĠEsperantan":9163,"Ġmunici":9164,"Ġintegri":9165,"Ġankorau":9166,"Ġkvardek":9167,"Ġkapablis":9168,"opini":9169,"Ġsocialisma":9170,"Ġinci":9171,"ĠEvange":9172,"âĢ¢":9173,"Ġmov":9174,"Ġkant":9175,"Ġvastan":9176,"ktante":9177,"Ġcigar":9178,"ĠHerzberg":9179,"omi":9180,"ĠCX":9181,"ĠmonaÄ¥ejo":9182,"Ġkondamn":9183,"Pol":9184,"tifi":9185,"rana":9186,"Ġalire":9187,"ĠÅĿtataj":9188,"2014":9189,"Ġmatematiko":9190,"Ġimi":9191,"ĠAN":9192,"cezo":9193,"Ġinteresan":9194,"Ġadministrado":9195,"Ġtransdonis":9196,"Ġavo":9197,"dok":9198,"Ġesploris":9199,"Ġkliento":9200,"Ġtendaro":9201,"ĠMora":9202,"iÄĿus":9203,"Ġaliloke":9204,"Ã£o":9205,"Nur":9206,"Pas":9207,"kongres":9208,"ĠBrun":9209,"ludo":9210,"Ġmekan":9211,"Plej":9212,"Ġsla":9213,"rantoj":9214,"Ġpartoprenos":9215,"Ġamike":9216,"Ġdivido":9217,"cke":9218,"Ġekzisti":9219,"Ġstudento":9220,"intojn":9221,"olk":9222,"Ġrestado":9223,"ĠHistorio":9224,"Ġmallongaj":9225,"Ġkolonioj":9226,"ĠRigardu":9227,".),":9228,"ĠÄĿeneralan":9229,"Ġgravecon":9230,"ĠlaÅŃte":9231,"Ġklarigojn":9232,"ĠIslando":9233,"Ġurbe":9234,"Ġgrafi":9235,"uth":9236,"Ġ1932":9237,"Ġindustria":9238,"Ġincen":9239,"Ġarbi":9240,"Ġpagas":9241,"Ġ:)":9242,"Ġkaraj":9243,"Ġmiliardoj":9244,"one":9245,"Ġpole":9246,"Ġaron":9247,"Ġakcen":9248,"Ġnormo":9249,"igitan":9250,"Ġterminoj":9251,"Ġpano":9252,"Ġpentris":9253,"favor":9254,"Ġnecesaj":9255,"Ġbrun":9256,"Ġsubme":9257,"Ġ1988":9258,"lego":9259,"ĠEtio":9260,"Ġ75":9261,"komunumo":9262,"liÄĿas":9263,"vejo":9264,"kana":9265,"Ġpiedi":9266,"tigos":9267,"Man":9268,"Ġklopodoj":9269,"ĠNikolao":9270,"Ġbuti":9271,"Ġverdaj":9272,"ĠokazaÄµo":9273,"Ġkompletigi":9274,"Ð¾Ð²":9275,"Ġhungaroj":9276,"mara":9277,"Î¹":9278,"ĠnomiÄĿis":9279,"karto":9280,"Ġelstaraj":9281,"Ġkomplika":9282,"Ġsenes":9283,"Ġkonsento":9284,"Ġmali":9285,"Ġtrankvila":9286,"Ġformato":9287,"ĠSeb":9288,"Ġdika":9289,"ĠGlo":9290,"Ġprezentado":9291,"laboro":9292,"ĠvojaÄĿi":9293,"ĠfiniÄĿas":9294,"Ġkanalo":9295,"Ġrenkontas":9296,"Ġdirite":9297,"Ġfizika":9298,"mur":9299,"poro":9300,"Ġliterojn":9301,"Ġinterkompren":9302,"Ġmastr":9303,"ĠThomas":9304,"Ġestraranoj":9305,"Ġgejunuloj":9306,"iza":9307,"ĠenloÄĿ":9308,"Ġdubas":9309,"fort":9310,"stacio":9311,"Ġceter":9312,"Ġregistaron":9313,"Ġabsur":9314,"Ġvizitas":9315,"ĠRomia":9316,"Ġduobla":9317,"ilvan":9318,"ĠGub":9319,"peno":9320,"ĠKomunumo":9321,"Ġ54":9322,"eblajn":9323,"ĠHispan":9324,"ĠlarÄĿ":9325,"Ġvigla":9326,"Ġeterne":9327,"mena":9328,"periodo":9329,"????":9330,"hl":9331,"tein":9332,"ĠAus":9333,"Ġgrafo":9334,"Ġpensojn":9335,"Ġkapablon":9336,"Ġfrazon":9337,"?)":9338,"Ġgor":9339,"Ġmaldi":9340,"Ġkomunismo":9341,"Ġamis":9342,"ĠDomini":9343,"PS":9344,"Ġino":9345,"daÅŃro":9346,"konto":9347,"mila":9348,"Ġturistoj":9349,"Ġsocian":9350,"Ġinfluas":9351,"94":9352,"edo":9353,"lero":9354,"Ġ52":9355,"Ġakcept":9356,"Ġgrandparte":9357,"Ġprotekto":9358,"lovaka":9359,"Ġpreterpas":9360,"Ġkonscias":9361,"picxo":9362,"ĠMichael":9363,"scen":9364,"Ġ>":9365,"enda":9366,"Ġges":9367,"Ġkomento":9368,"Ġtreege":9369,"puÅĿ":9370,"Ġparolo":9371,"gxas":9372,"Ġkus":9373,"ciajn":9374,"Ġtuto":9375,"Ġmalsanu":9376,"Ġdistriktoj":9377,"ĠSekure":9378,"Ġrom":9379,"Ġgvido":9380,"Ġurbestro":9381,"Ġhorlo":9382,"ĠLingva":9383,"PA":9384,"Ġfloro":9385,"ĠPal":9386,"Ġlandojn":9387,"Ġsinde":9388,"nudajxo":9389,"ĠJac":9390,"Ġegaleco":9391,"Ġmaldekstre":9392,"Ġestrarano":9393,"picxoj":9394,"geto":9395,"ĠGrupo":9396,"fro":9397,"Ġade":9398,"ĠKrako":9399,"Ġ1986":9400,"Ġekzamenon":9401,"Ġsimboloj":9402,"tigojn":9403,"ĠZag":9404,"Ġfenestroj":9405,"Ġfirmaoj":9406,"Cetere":9407,"Ã´":9408,"Ġalin":9409,"Ġ58":9410,"Ġaktivaj":9411,"Ġkontaktoj":9412,"ĠAfrika":9413,"lian":9414,"Ġopera":9415,"Ġ250":9416,"Ġnesu":9417,"Ġigi":9418,"ujoj":9419,"medi":9420,"ĠÄĪilio":9421,"ĠBarcel":9422,"hara":9423,"Ġzorge":9424,"ĠMalaj":9425,"Ġaliro":9426,"Ġhoman":9427,"Ġdisponas":9428,"ĠaÅŃtomob":9429,"Ġkern":9430,"ĠestaÄµo":9431,"ĠAlban":9432,"Ġofic":9433,"ĠmesaÄĿojn":9434,"Ġlakto":9435,"indaj":9436,"Ġmontrata":9437,"gadis":9438,"Ġpublikigo":9439,"nome":9440,"ĠokupiÄĿis":9441,"hun":9442,"Ġtipa":9443,"Ġelti":9444,"puta":9445,"Ġfakoj":9446,"Ġplanto":9447,"Ġmemorigas":9448,"Ġligilojn":9449,"lernis":9450,"Ġteknika":9451,"Ġentomb":9452,"Ġtropi":9453,"Ġlasu":9454,"Ġharoj":9455,"partoj":9456,"Ġbatalis":9457,"ĠMuzi":9458,"toron":9459,"Ġekspor":9460,"Ġokazigis":9461,"enerale":9462,"Ġlastajn":9463,"Ġmajstro":9464,"ktajn":9465,"ĠLud":9466,"ĠFlu":9467,"mond":9468,"Ġsinoni":9469,"Ġlabora":9470,"PERANTO":9471,"zoro":9472,"Ġdifinitaj":9473,"ĠSlovenio":9474,"sel":9475,"riÄī":9476,"ĠStalino":9477,"Ġsendependeco":9478,"Unue":9479,"stein":9480,"IT":9481,"dejon":9482,"Ġdeziron":9483,"Ġciviliz":9484,"Ġbanko":9485,"plor":9486,"Ġaspi":9487,"Ġmanieron":9488,"Ġefektiva":9489,"ach":9490,"oritato":9491,"vivo":9492,"Ġutiligi":9493,"Ġorganoj":9494,"ĠCorsetti":9495,"Ġmej":9496,"Ġplanoj":9497,"ĠPeruo":9498,"Ġdonacis":9499,"Ġeroj":9500,"mao":9501,"Ġfermita":9502,"ÅĿing":9503,"Ġpripensi":9504,"Ġbonkor":9505,"ĠhaÅŃto":9506,"Ġsamideanoj":9507,"Ġsekcioj":9508,"Ġkuris":9509,"ĠDemokratia":9510,"CH":9511,"Ġpostuloj":9512,"Ġrusaj":9513,"ĠGrand":9514,"ĠJerusalem":9515,"ĠKonstitucio":9516,"Ġpartoprenon":9517,"Ġedzinon":9518,"dero":9519,"naj":9520,"ĠKing":9521,"Ġpostulo":9522,"Ġimpor":9523,"Ġscenejo":9524,"Ġsoj":9525,"ligon":9526,"ĠSinga":9527,"Ġakor":9528,"litera":9529,"ĠLegi":9530,"Ġtendenco":9531,"indi":9532,"ĠAzerbajÄĿ":9533,"usa":9534,"nivela":9535,"hav":9536,"Ġ51":9537,"Ġ1933":9538,"vilo":9539,"Ġvendi":9540,"Ġvortaron":9541,"kultur":9542,"ney":9543,"Ġrevenas":9544,"ĠEarth":9545,"Ġligas":9546,"miro":9547,"Ġekzistantaj":9548,"ĠÄīambroj":9549,"Ġprivataj":9550,"Ġejoj":9551,"Ġfalo":9552,"Ġesprimon":9553,"Ġrevenos":9554,"Ġmortintoj":9555,"KA":9556,"Kara":9557,"devena":9558,"ĠelÄīer":9559,"Ġpostenon":9560,"Ġakre":9561,"Ġondoj":9562,"Ġsablo":9563,"Ġskribu":9564,"Ġpovon":9565,"Ġflava":9566,"igataj":9567,"ĠAldone":9568,"ĠrenkontiÄĿis":9569,"Ġrimarkas":9570,"ĠlingvaÄµo":9571,"Ġkomitatanoj":9572,"Cer":9573,"ĠJus":9574,"Ġlegan":9575,"Ġekscii":9576,"blu":9577,"elsen":9578,"ĠGon":9579,"ĠGas":9580,"stato":9581,"Ġfondo":9582,"Ġvaloras":9583,"Ġgeografia":9584,"oman":9585,"Ġvenki":9586,"profi":9587,"ĠReÄĿo":9588,"logioj":9589,"ĠFinfine":9590,"ĠJames":9591,"Ġmont":9592,"Ġekvival":9593,"Ġmalhelpas":9594,"sson":9595,"uc":9596,"Ġstel":9597,"Ġmalkla":9598,"Ġfara":9599,"Ġkandidato":9600,"Ġlumon":9601,"Ġmonar":9602,"Ġindiferen":9603,"inten":9604,"ralo":9605,"Ġpostula":9606,"simp":9607,"Ġtrovita":9608,"ĠHavano":9609,"Ġdialektoj":9610,"LU":9611,"Î½":9612,"ĠEm":9613,"Ġgloro":9614,"Ġcan":9615,"Ġsekvanta":9616,"Ġkutimaj":9617,"Ġagor":9618,"Ġvane":9619,"ĠEblas":9620,"Ġaktoro":9621,"Ġfazo":9622,"Ġfini":9623,"Ġembar":9624,"ID":9625,"ĠÏ":9626,"Ġpes":9627,"lilo":9628,"viva":9629,"Ġsincere":9630,"cepte":9631,"Ġklaku":9632,"bili":9633,"ĠArmenio":9634,"amenhof":9635,"Ġdense":9636,"Ġnumeron":9637,"Ġbrul":9638,"Krome":9639,"Ġpom":9640,"Ġfr":9641,"Ġfros":9642,"ĠSun":9643,"ĠMel":9644,"emuloj":9645,"Ġfian":9646,"Ġfluas":9647,"Ġuniverso":9648,"Ġdatumojn":9649,"ĠfreÅĿ":9650,"Ġstrategio":9651,"Centro":9652,"tigante":9653,"ĠBoli":9654,"ĠJerusalemo":9655,"Ø§Ù":9656,"Ġtravivis":9657,"monio":9658,"ĠTiaj":9659,"Ġekzistanta":9660,"Ġjeto":9661,"Ġfaden":9662,"Ġebligi":9663,"Ġrenkont":9664,"Ġpruvas":9665,"kunveno":9666,"Ġduling":9667,"ĠCez":9668,"ĠkondiÄīojn":9669,"ĠLeo":9670,"Ġleterojn":9671,"Ġbonege":9672,"ĠmaÅĿin":9673,"Usono":9674,"ĠAla":9675,"dela":9676,"decon":9677,"ĠMac":9678,"blog":9679,"Ġtaskojn":9680,"Ġrideto":9681,"Ġtelefonvo":9682,"peco":9683,"Ġdiligen":9684,"ĠAlÄĿ":9685,"Ġdeviga":9686,"Ġfacil":9687,"Ġindividuo":9688,"Ġpordego":9689,"Ġrok":9690,"Ġtradukas":9691,"Ġakcepto":9692,"Ġrango":9693,"ĠHitler":9694,"taks":9695,"Ġjc":9696,"Ġekiris":9697,"Ġturmen":9698,"Ġenkonduki":9699,"Ġkonstatas":9700,"Ġguberni":9701,"Ġlit":9702,"igojn":9703,"ĠClaude":9704,"Ġskriba":9705,"Ġador":9706,"Ġmultfoje":9707,"ĠHans":9708,"ĠBoris":9709,"ĠVis":9710,"ĠLibano":9711,"Ġfundamento":9712,"droj":9713,"kesto":9714,"Ġheli":9715,"ĠkondiÄīo":9716,"pozicioj":9717,"Ġgrandegan":9718,"ĠTesta":9719,"ĠpreÄĿo":9720,"Ġpezo":9721,"ĠindiÄĿen":9722,"Ġ1985":9723,"ĠTais":9724,"ĠÄľenerale":9725,"ĠBlanka":9726,"Ġenigi":9727,"Ġido":9728,"Ġluno":9729,"Ġagon":9730,"Ġmalsimi":9731,"Ġkolero":9732,"Ġ1944":9733,"Ġsenpaga":9734,"DR":9735,"lejoj":9736,"Ġsana":9737,"ĠreÄĿlando":9738,"ĠSomalio":9739,"ic":9740,"ĠlaÅŃeble":9741,"Ġsimilajn":9742,"ĠXian":9743,"ĠantaÅŃan":9744,"centa":9745,"ĠmarÅĿ":9746,"ĠnovaÄµojn":9747,"Ġ1967":9748,"Ġurbaj":9749,"Ġdividi":9750,"Ġombro":9751,"Ġetoson":9752,"Ġmalver":9753,"zonon":9754,"Ġgefratoj":9755,"ĠKulturo":9756,"To":9757,"Ġreago":9758,"Ġteritorion":9759,"Ge":9760,"yer":9761,"Ġsving":9762,"Ġperdas":9763,"Ġinterromp":9764,"âĪŀâĪŀâĪŀâĪŀâĪŀâĪŀâĪŀâĪŀ":9765,"ĠEta":9766,"ettes":9767,"ĠAÅŃgusto":9768,"ĠMaroko":9769,"isman":9770,"ĠRio":9771,"Ġfaka":9772,"Ġsituacioj":9773,"nombra":9774,"ĠÄīeestas":9775,"Ġprogrameroj":9776,"ĠFilipinoj":9777,"ĠJaro":9778,"Ġkromaj":9779,"Ġkurac":9780,"Ġbando":9781,"Ġordinaraj":9782,"Ġmalgrandajn":9783,"Ġdividita":9784,"Ġevidenta":9785,"ĠCharles":9786,"muziko":9787,"Fon":9788,"leri":9789,"lev":9790,"Ġmig":9791,"Ġesperantlingva":9792,"ĠInsuloj":9793,"ĠÄľenevo":9794,"ĠBet":9795,"ĠVivo":9796,"ĠAndr":9797,"Ġinstruo":9798,"Ġgvidi":9799,"Ġopiniojn":9800,"Ġintenco":9801,"beloj":9802,"ĠJud":9803,"ĠÅľtato":9804,"Tem":9805,"ĠTrin":9806,"Ġintera":9807,"Ġunuflanke":9808,"ĠJas":9809,"Dankon":9810,"Ġlerte":9811,"Ġatestas":9812,"ĠPom":9813,"ĠNAS":9814,"Ġmorala":9815,"Ġ59":9816,"kantaj":9817,"ĠServo":9818,"ĠÄĪeÄ¥oslovakio":9819,"Ġsendependaj":9820,"lingvanoj":9821,"espri":9822,"Ġnuan":9823,"Ã¶n":9824,"Ġsilent":9825,"86":9826,"pta":9827,"Ġanalo":9828,"ĠKomer":9829,"ktadon":9830,"Ġjura":9831,"Ġeniras":9832,"Fin":9833,"tilon":9834,"ĠKat":9835,"Ġlecion":9836,"ĠRusia":9837,"Ġkunvenoj":9838,"Soci":9839,"Share":9840,"Ġtransprenis":9841,"ĠMalfer":9842,"Ġ1977":9843,"ĠOriento":9844,"liÄĿo":9845,"Ġsocial":9846,"Ġstrukturon":9847,"Ġanimon":9848,"\";":9849,"Hun":9850,"wil":9851,"inK":9852,"ĠHomoj":9853,"ĠÅľajnas":9854,"Ġkonduki":9855,"Ġeliri":9856,"Ġnumeroj":9857,"tarojn":9858,"Ġrestu":9859,"ĠValen":9860,"daÄµojn":9861,"Ġgermane":9862,"Ġkonkreta":9863,"LS":9864,"zam":9865,"Ġarkeo":9866,"Ġekskurso":9867,"ĠZuri":9868,"Ġkonvink":9869,"ĠbroÅĿ":9870,"Radio":9871,"fojn":9872,"Ġtradukojn":9873,"ĠParko":9874,"Ġabstra":9875,"ĠSaksio":9876,"Ġfidela":9877,"deÅĿo":9878,"Ġelparo":9879,"say":9880,"Ġuniversitata":9881,"ĠProjekto":9882,"Ġkompro":9883,"imar":9884,"Ġanimaloj":9885,"tivajn":9886,"ĠAuld":9887,"kuro":9888,"ĠÂĸ":9889,"Ġdonacon":9890,"ĠpoÅĿtkodo":9891,"!...":9892,"dum":9893,"rad":9894,"Ġbest":9895,"Ġpod":9896,"mesa":9897,"Ġsimplan":9898,"Ġvicprezidanto":9899,"Ġscipovas":9900,"raÄµo":9901,"Ġelmig":9902,"ĠCan":9903,"Ġproponita":9904,"ĠAntar":9905,"Ġvaroj":9906,"ftvaro":9907,"Äįek":9908,"Ġliberecon":9909,"ĠplaÄīis":9910,"ĠVilhel":9911,"Ligo":9912,"pur":9913,"Ġsamnoma":9914,"ĠPoÅĿt":9915,"ĠÅĿanÄĿas":9916,"Ġrapideco":9917,"Ġekzamenoj":9918,"Ġalvenas":9919,"gilo":9920,"Ġribe":9921,"rektoro":9922,"ghis":9923,"ĠSalom":9924,"corde":9925,"Ġdefinitive":9926,"ĠFilipo":9927,"Ġecoj":9928,"Ġape":9929,"ĠLatin":9930,"ĠRegno":9931,"ĠengaÄĿ":9932,"kovrilaj":9933,"100":9934,"RAT":9935,"Ġinoj":9936,"Ġ1914":9937,"anao":9938,"ĠNatur":9939,"Ġdiablo":9940,"Ġrego":9941,"Ġ53":9942,"ĠMovado":9943,"Ġkunlaborantoj":9944,"Ġposedis":9945,"Ġnekompren":9946,"prezi":9947,"Ġster":9948,"arojn":9949,"vola":9950,"turilo":9951,"Ġebri":9952,"logiajn":9953,"Ġknaboj":9954,"Ġastero":9955,"Ġwith":9956,"Ġ#?":9957,"danÄĿer":9958,"Ġprivilegi":9959,"Ġintertempe":9960,"vinta":9961,"ĠMeze":9962,"sky":9963,"ilejo":9964,"Ġlandlimo":9965,"Ġekzi":9966,"haus":9967,"ĠMalnova":9968,"Ġfamilion":9969,"Ġtransiris":9970,"Ġislama":9971,"ĠTajvano":9972,"Ġperspektivo":9973,"Pres":9974,"Ð¹":9975,"ret":9976,"Ġvenk":9977,"Ġhonoro":9978,"Ġkovrita":9979,"91":9980,"lari":9981,"Ġsiavice":9982,"Ġekonomian":9983,"Ġminutojn":9984,"Ġtras":9985,"Ġkoin":9986,"Ġplanon":9987,"Ġtota":9988,"ĠdediÄīis":9989,"Ġkategorioj":9990,"Lia":9991,"elaj":9992,"Ġkerno":9993,"ĠreÄĿoj":9994,"Ġprovoj":9995,"ĠTea":9996,"Ġsinte":9997,"hava":9998,"Ġmalhelpi":9999,"Ġaprobis":10000,"dun":10001,"Ġport":10002,"Ġkuire":10003,"enove":10004,"Ġnecesajn":10005,"ĠSocia":10006,"Ġfunkciado":10007,"ĠvojaÄĿoj":10008,"lernejoj":10009,"Ġusonanoj":10010,"ĠHenri":10011,"Ġkompanioj":10012,"ĠZagre":10013,"Ġfeb":10014,"ĠFoje":10015,"Ġformis":10016,"Ġkuri":10017,"Ġ57":10018,"ĠAlberto":10019,"Ġindividua":10020,"Zelando":10021,"Ori":10022,"ĠfiÅĿkap":10023,"Alike":10024,"cro":10025,"dern":10026,"Ġaltaro":10027,"Ġeksklu":10028,"Ġkomputila":10029,"Ġseminario":10030,"ShareAlike":10031,"CE":10032,"lao":10033,"igiloj":10034,"plano":10035,"Ġfaman":10036,"Ġmalliberejo":10037,"klino":10038,"teble":10039,"meno":10040,"klubo":10041,"ĠOrganizaÄµoj":10042,"ĠDokumentoj":10043,"ii":10044,"tico":10045,"ĠGam":10046,"Ġsklavoj":10047,"kamen":10048,"Ġtipoj":10049,"Ġ56":10050,"umena":10051,"ĠdeÄµ":10052,"Ġprocen":10053,"Ġdirus":10054,"Ġsenlabor":10055,"olingo":10056,"ĠMarko":10057,"ĠPaco":10058,"ĠaÅŃtoritatoj":10059,"Ġkonfliktoj":10060,"Ġmeksi":10061,"Ġfraz":10062,"ĠJapan":10063,"Ġrezultas":10064,"Ġspertojn":10065,"Ġ1979":10066,"ĠtranslokiÄĿis":10067,"Ġdevenis":10068,"ierre":10069,"Ġbruo":10070,"Kompreneble":10071,"ĠAzerbajÄĿano":10072,"97":10073,"Ġenre":10074,"ĠFaj":10075,"Ġkonversacio":10076,"Ġforpasis":10077,"Ġmalhela":10078,"filoj":10079,"Ġperd":10080,"ĠHi":10081,"Ġsuperas":10082,"Ġkarto":10083,"inario":10084,"tite":10085,"Ġrevo":10086,"ĠAk":10087,"Ġbondezi":10088,"Ġaperinta":10089,"Ġdeklaras":10090,"Ġtombejo":10091,"ye":10092,"ĠApri":10093,"Ġgratu":10094,"ĠForumo":10095,"Ġregionaj":10096,"äº":10097,"ranto":10098,"Ġkonservis":10099,"esperantistoj":10100,"Ġhistoriisto":10101,"Ġbron":10102,"Ġleksi":10103,"Ġbrila":10104,"ĠAntver":10105,"cino":10106,"âĶ":10107,"Ġdisdon":10108,"Ġtam":10109,"Ġcerb":10110,"Ġkomprenebla":10111,"Ġtelevid":10112,"Ġvolontuloj":10113,"ĠBosnio":10114,"Ġthat":10115,"Ġ:-)":10116,"Ġprave":10117,"tegia":10118,"Ġmalfermo":10119,"Ġtrink":10120,"jes":10121,"Ġenig":10122,"olon":10123,"Ġkritika":10124,"Ġrakonton":10125,"farado":10126,"Ġmultnombraj":10127,"Ġalloga":10128,"ĠPluraj":10129,"lekto":10130,"ĠMc":10131,"Ġmalgra":10132,"ĠOrganizo":10133,"maro":10134,"Ġdevon":10135,"Ġmm":10136,"Ġesperon":10137,"Ġbril":10138,"Ġtransporto":10139,"Ġstatuto":10140,"Ġjo":10141,"Ġservon":10142,"Ġbaga":10143,"ĠdaÅŃra":10144,"ÄĿantoj":10145,"Ġresto":10146,"marko":10147,"Ġrum":10148,"kapablo":10149,"ĠBruselo":10150,"Ġafa":10151,"ĠProfes":10152,"ĠVerÅĿajne":10153,"Ġkatolikoj":10154,"muloj":10155,"Å¼":10156,"Ġvizita":10157,"Ġoran":10158,"Ġbeleco":10159,"ĠÄµa":10160,"Ġkonvinki":10161,"ega":10162,"festo":10163,"tulojn":10164,"ĠKlubo":10165,"vat":10166,"ĠFettes":10167,"paÄµo":10168,"Ġkaver":10169,"mentaj":10170,"Ġamuzi":10171,"Ġplanedoj":10172,"war":10173,"emajn":10174,"ĠUru":10175,"Ġgraf":10176,"Ġviando":10177,"Ġkuraci":10178,"Ġdoloro":10179,"ĠSingapuro":10180,"Ä«":10181,"Ġdras":10182,"Ġvendis":10183,"ĠrenkontiÄĿon":10184,"Ġeksplodis":10185,"Ġmedicino":10186,"kipedion":10187,"tikisto":10188,"Ġkorup":10189,"Ġstudado":10190,"Ġplial":10191,"Ġaktiveco":10192,"ĠDiskuto":10193,"AB":10194,"mith":10195,"Ġakra":10196,"Ġkurio":10197,"ĠMont":10198,"Ġpozitiva":10199,"Ġrealigo":10200,"dolf":10201,"ĠStanis":10202,"Ġnesto":10203,"Ġhier":10204,"Ġmalsupre":10205,"ĠdisvastiÄĿis":10206,"Ġidenteco":10207,"VD":10208,"tter":10209,"Ġpilo":10210,"Ġenor":10211,"Ġkomunistoj":10212,"ĠfeliÄīe":10213,"Ġagnoskas":10214,"Ġgusto":10215,"ĠPreskaÅŃ":10216,"Ġabsoluta":10217,"ĠTogolando":10218,"ĠRed":10219,"Ġtradicioj":10220,"Ġinternacie":10221,"Ġalportas":10222,"ĠÅĿatata":10223,"Ġsonoj":10224,"ĠLar":10225,"ĠEfektive":10226,"âĢĳ":10227,"Ġpapa":10228,"centra":10229,"Ġpensado":10230,"Ġkruco":10231,"Ġseka":10232,"malo":10233,"Ġroz":10234,"jariÄĿo":10235,"Ġapuda":10236,"germana":10237,"Karaj":10238,"Ġplas":10239,"estron":10240,"ĠMiaj":10241,"Ġkamparo":10242,"Ġ1908":10243,"Ġdialekto":10244,"OM":10245,"nan":10246,"Ġund":10247,"Ġtraktado":10248,"Ġfalas":10249,"ĠJuan":10250,"Ġalvoko":10251,"kolon":10252,"cego":10253,"Ġnocio":10254,"Ġvarmo":10255,"Ġpopulacio":10256,"iel":10257,"ware":10258,"Ġagis":10259,"Äīen":10260,"Ġfero":10261,"ĠÄīevaloj":10262,"Ġrusoj":10263,"ĠMediteran":10264,"sx":10265,"Ġlipoj":10266,"pilo":10267,"bazo":10268,"Ġpriskribita":10269,"ĠaÅŃtoritato":10270,"Ġdetruis":10271,"ĠKle":10272,"ĠÄľin":10273,"ĠsorÄī":10274,"ĠEkster":10275,"ĠVaÅĿing":10276,"Ġdron":10277,"stina":10278,"ĠparoÄ¥":10279,"Ġuzitaj":10280,"''":10281,"viv":10282,"dekaj":10283,"ĠWin":10284,"Ġ65":10285,"Ġaserto":10286,"96":10287,"Ġshi":10288,"cir":10289,"ighis":10290,"ĠTol":10291,"ĠRek":10292,"Ġverkado":10293,"ĠmalriÄīaj":10294,"Ġdokumenton":10295,"Ġdokumentojn":10296,"ÑģÑĤ":10297,"nik":10298,"Ġtrafiko":10299,"Ġtrium":10300,"Ġnaskita":10301,"ĠÅĿtonoj":10302,"Ġ@":10303,"ĠMaÅŃri":10304,"dad":10305,"Ġromanoj":10306,"Ġkonkuren":10307,"UNK":10308,"ĠneÄĿ":10309,"Ġelementojn":10310,"Ã©r":10311,"ĠJapana":10312,"Ġ1976":10313,"ep":10314,"Ġulo":10315,"teblas":10316,"Ġbord":10317,"ĠPr":10318,"Ġnomitaj":10319,"ĠpentraÄµoj":10320,"profita":10321,"ĠSvisio":10322,"!!!":10323,"ĠreÄĿisoro":10324,"Ġghis":10325,"emor":10326,"patrino":10327,"respon":10328,"parta":10329,"ĠEkzem":10330,"ĠÃł":10331,"Ġblogon":10332,"Ġ1982":10333,"Ġraportoj":10334,"Ġekstrema":10335,"Ġatribui":10336,"ĠGil":10337,"Ġgrandio":10338,"Ġfrazojn":10339,"Ġrifuzas":10340,"Ġkategorion":10341,"Ġlogiko":10342,"ĠPie":10343,"Ġbalan":10344,"Ġ120":10345,"ĠkonatiÄĿis":10346,"etojn":10347,"Ġqu":10348,"Ġenlanda":10349,"ĠKvar":10350,"osta":10351,"Ġpagis":10352,"historio":10353,"gono":10354,"sh":10355,"tine":10356,"Ġeblos":10357,"Ġspecifaj":10358,"Ġregionon":10359,"Ġspite":10360,"ĠKartve":10361,"Ġarbus":10362,"ĠÄµurnalistoj":10363,"Ġkonforme":10364,"ĠTeri":10365,"ĠLago":10366,"ĠtuÅĿas":10367,"Ġoriginale":10368,"ĠKongresoj":10369,"ada":10370,"Ġpr":10371,"ÄĿeto":10372,"piro":10373,"Ġakuza":10374,"Ġfinita":10375,"ĠbedaÅŃras":10376,"ĠÄĪam":10377,"komple":10378,"Ġmalamo":10379,"Ġenvi":10380,"Ġfle":10381,"Ġreformo":10382,"Ġserpen":10383,"fluas":10384,"late":10385,"kataj":10386,"Ġvivoj":10387,"ĠkaÅĿi":10388,"ĠkontraÅŃa":10389,"Ġoft":10390,"jaroj":10391,"koto":10392,"pane":10393,"ĠÄīefan":10394,"parol":10395,"Ġ1978":10396,"ĠKultura":10397,"Ġartefarita":10398,"Peter":10399,"Ġeo":10400,"Ġdeko":10401,"ĠMajo":10402,"ĠVian":10403,"Ġdevigis":10404,"Ġordinare":10405,"Ġkvaliton":10406,"kvankam":10407,"ĠaÄµoj":10408,"ÄĿinte":10409,"Ġnokton":10410,"ĠnovaÄµ":10411,"Ġkarno":10412,"Ġpriskriba":10413,"ĠBelorus":10414,"eldon":10415,"Ġbv":10416,"Ġelektu":10417,"ĠLiteratura":10418,"Ġetan":10419,"teca":10420,"Ġtelefonvokoj":10421,"Ġtesta":10422,"Ġfora":10423,"Ġfunkcii":10424,"ĠHai":10425,"Ġunuavice":10426,"lla":10427,"ĠAR":10428,"Ġpermesiloj":10429,"Ġtradukitaj":10430,"ĠMontri":10431,"ĠMalajzio":10432,"jaraj":10433,"zes":10434,"Ġrezon":10435,"ĠProjek":10436,"porta":10437,"ĠWol":10438,"Ġplenigis":10439,"Ġprogramojn":10440,"tekni":10441,"riÄĿis":10442,"ĠaÅŃten":10443,"ĠKim":10444,"ebleco":10445,"press":10446,"Fakte":10447,"Ġfakaj":10448,"ĠinteresiÄĿis":10449,"Ġ1983":10450,"ĠÅĿanÄĿiÄĿas":10451,"Ġlimojn":10452,"vila":10453,"Ġforiri":10454,"programo":10455,"mals":10456,"Ġ1984":10457,"ĠHazar":10458,"Ġstrebas":10459,"Ġrevolucia":10460,"beto":10461,"Ġvira":10462,"Ġvikipedio":10463,"ĠDor":10464,"Ġkapi":10465,"Ġminer":10466,"Ġtrinki":10467,"Ġalvokon":10468,"Ġsingar":10469,"amaso":10470,"Ġovo":10471,"ĠNek":10472,"oniko":10473,"pie":10474,"Ġekziston":10475,"Ġoriginalaj":10476,"ĠTurk":10477,"Ġkrono":10478,"tonio":10479,"preno":10480,"Ġambi":10481,"fig":10482,"uan":10483,"Ġex":10484,"Ġestroj":10485,"Ġrektan":10486,"ĠÅĿte":10487,"vej":10488,"Ġpermeso":10489,"ĠetaÄĿo":10490,"Ġregistritaj":10491,"ç¤¼åĮħç¤¼åĮħç¤¼åĮħç¤¼åĮħç¤¼åĮħç¤¼åĮħç¤¼åĮħç¤¼åĮħç¤¼åĮħç¤¼åĮħç¤¼åĮħç¤¼åĮħç¤¼åĮħç¤¼åĮħç¤¼åĮħç¤¼åĮħç¤¼åĮħç¤¼åĮħç¤¼åĮħç¤¼åĮħç¤¼åĮħç¤¼åĮħç¤¼åĮħç¤¼åĮħç¤¼åĮħç¤¼åĮħç¤¼åĮħç¤¼åĮħç¤¼åĮħç¤¼åĮħç¤¼åĮħç¤¼åĮħç¤¼åĮħç¤¼åĮħç¤¼åĮħç¤¼åĮħç¤¼åĮħç¤¼åĮħç¤¼åĮħç¤¼åĮħç¤¼åĮħç¤¼åĮħç¤¼åĮħç¤¼åĮħç¤¼åĮħç¤¼åĮħç¤¼åĮħç¤¼åĮħç¤¼åĮħç¤¼åĮħç¤¼åĮħç¤¼åĮħç¤¼åĮħç¤¼åĮħç¤¼åĮħç¤¼åĮħç¤¼åĮħç¤¼åĮħç¤¼åĮħç¤¼åĮħç¤¼åĮħç¤¼åĮħç¤¼åĮħç¤¼åĮħ":10492,"uta":10493,"uton":10494,"zin":10495,"Ġaltran":10496,"ĠSier":10497,"ford":10498,"Ġ1887":10499,"ĠÅľa":10500,"Ġfinancaj":10501,"Ġkontenta":10502,"ĠpejzaÄĿo":10503,"ĠJozefo":10504,"adas":10505,"all":10506,"Ġgvidan":10507,"ĠLatvio":10508,"Ġekva":10509,"Ġprem":10510,"ĠFR":10511,"Ġrespondeco":10512,"ĠfiÅĿoj":10513,"Ġkonkeris":10514,"ĠNapoleono":10515,"liga":10516,"Ġtrun":10517,"Ġkemia":10518,"ĠMika":10519,"Ġkorea":10520,"Ã©n":10521,"Ġkutimas":10522,"Ġoperacio":10523,"ĠFrancujo":10524,"liaj":10525,"Ġenter":10526,"peton":10527,"ĠRenato":10528,"ĠkontraÅŃas":10529,"ĠReÄĿa":10530,"burga":10531,"Ġ1975":10532,"Ġkarakteriza":10533,"ĠsovaÄĿ":10534,"here":10535,"Ġesenco":10536,"Ġretoj":10537,"umaj":10538,"struk":10539,"ĠMonto":10540,"ĠtagmanÄĿo":10541,"ĠpoÅĿtele":10542,"Ġ##":10543,"ÏĤ":10544,"Ġsavo":10545,"ĠmembroÅĿtatoj":10546,"Eni":10547,"ĠKaÅŃ":10548,"renkon":10549,"Ġrespondoj":10550,"Ġesperantistaj":10551,"ĠRichard":10552,"iston":10553,"ĠDel":10554,"ĠHTML":10555,"Ġzorgi":10556,"Ġpiedo":10557,"Ġekspluata":10558,"Ġaparatoj":10559,"Ġdezajno":10560,"ĠKalifor":10561,"PIV":10562,"jono":10563,"tagon":10564,"ĠPh":10565,"ĠPlan":10566,"Ġkab":10567,"zanio":10568,"Ġnajbaroj":10569,"ilvanio":10570,"kris":10571,"Å¬":10572,"Ġque":10573,"Ġkino":10574,"Ġpostlas":10575,"Ġkamarado":10576,"Ġkoordinatojn":10577,"ĠBarcelono":10578,"âĢķ":10579,"dez":10580,"ĠIl":10581,"ÅŃropaj":10582,"ĠZim":10583,"Internacia":10584,"ĠDistrikto":10585,"koloraj":10586,"ĠFederacia":10587,"ĠKva":10588,"ĠPDF":10589,"Ġeblecoj":10590,"Ġ1938":10591,"Ġpanon":10592,"93":10593,"ĠkontraÅŃle":10594,"Ġceremoni":10595,"Ġankoraux":10596,"Ġpolitike":10597,"Ġdig":10598,"ĠpaÄĿ":10599,"pano":10600,"Ġinstigis":10601,"Ġkonstruitaj":10602,"Ġproponojn":10603,"ĠRusa":10604,"Ġmaljunulo":10605,"Nova":10606,"Ġinvado":10607,"ĠSab":10608,"Ġsufo":10609,"Ġkonsiloj":10610,"Ġtransdoni":10611,"Ġdetrui":10612,"ĠReÄĿlando":10613,"Ġfondi":10614,"ĠsaÄĿa":10615,"Ġ1956":10616,"Ġ1922":10617,"Ġobservi":10618,"****":10619,"ĠSia":10620,"Ġcivila":10621,"ĠmontriÄĿas":10622,"Ġfundamenta":10623,"Ġstatuo":10624,"tintaj":10625,"Ġturismo":10626,"Ġjapanaj":10627,"Ġkantado":10628,"Ġtren":10629,"Ġkomencan":10630,"Ġterure":10631,"ĠMarkso":10632,"ĠruÄĿaj":10633,"Ġvagon":10634,"Ġrisko":10635,"Ġesenca":10636,"Ġ(âĢľ":10637,"ĠAg":10638,"poz":10639,"verbo":10640,"Ġmole":10641,"tinto":10642,"Ġanglalingva":10643,"Ġradikojn":10644,"ĠAmazon":10645,"isa":10646,"Ġoleo":10647,"ĠEsper":10648,"Ġlernejon":10649,"Ġkontribuo":10650,"Ġdiferencas":10651,"komence":10652,"ĠretpoÅĿta":10653,"Ġtraktato":10654,"Ġdebato":10655,"82":10656,"gedio":10657,"ĠsenÅĿan":10658,"ĠÄīefur":10659,"Ġnormoj":10660,"Ġprofundan":10661,"Ġkontribuas":10662,"fing":10663,"Ġkapelo":10664,"Ġmalsato":10665,"ĠMax":10666,"Ġsukcesaj":10667,"Ġobservis":10668,"ĠNecesas":10669,"suba":10670,"tanio":10671,"Ġinterreta":10672,"oldo":10673,"vojoj":10674,"Ġbelajn":10675,"Ġcxiam":10676,"Ġ1974":10677,"Ur":10678,"tea":10679,"Ġelvo":10680,"Ġkoncernaj":10681,"Ġ1931":10682,"Ġtitoloj":10683,"Ġanalizi":10684,"igxas":10685,"ĠKrakovo":10686,"illo":10687,"ĠGla":10688,"Ġmovo":10689,"Ġmalsek":10690,"goro":10691,"Ġsie":10692,"ĠLibroj":10693,"ĠkaÅŃzi":10694,"Ġkunlaboron":10695,"Ġduonon":10696,"Ġrezolucio":10697,"Â·":10698,"Ġpripen":10699,").[":10700,"Ġduoninsulo":10701,"Ġmontrante":10702,"orgio":10703,"Ġtono":10704,"estra":10705,"kampo":10706,"Ġatingebla":10707,"Ġ1949":10708,"Ġmaljus":10709,"Ġekstreme":10710,"\"-":10711,"ĠSkrib":10712,"kse":10713,"ĠHeb":10714,"Ġpatroj":10715,"ube":10716,"Ġkreitaj":10717,"Ġliberigi":10718,"Ġsolena":10719,"Ġkonsiderataj":10720,"Ġrusan":10721,"ĠaranÄĿ":10722,"Ġteatra":10723,"Ġinterlingvis":10724,"Ġeksi":10725,"Ġnorve":10726,"Ġturka":10727,"Ġkares":10728,"ĠDuolingo":10729,"Ġmedioj":10730,"Ġescepto":10731,"Ġhebrea":10732,"dron":10733,"tulon":10734,"Ġsistem":10735,"enton":10736,"Ġlikvi":10737,"ĠAlpoj":10738,"Ã³r":10739,"Ġpraktiki":10740,"Ġrespondec":10741,"ĠFestivalo":10742,"08765":10743,"Pl":10744,"uf":10745,"Ġreganto":10746,"Ġpolus":10747,"kedo":10748,"Ġ1981":10749,"Ġfavora":10750,"Ġspacon":10751,"ĠEgiptujo":10752,"Ġafrikaj":10753,"Ġnaskis":10754,"Ġunusola":10755,"xojn":10756,"radon":10757,"Ġneniuj":10758,"ĠÅĿtaton":10759,"Ġmuzikistoj":10760,"Ġkomerc":10761,"kalku":10762,"Ġmedicina":10763,"ppe":10764,"the":10765,"kaÄµojn":10766,"ĠSri":10767,"Ġmotoro":10768,"Ġlernanto":10769,"Ġsignifis":10770,"Ġkuracistoj":10771,"Ġaktivis":10772,"cxo":10773,"ĠPetr":10774,"Ġ1936":10775,"ĠOnline":10776,"Ġambasad":10777,"Ġskol":10778,"Ġvido":10779,"ÅĿar":10780,"Ġsurvoje":10781,"Ġleter":10782,"enojn":10783,"dalo":10784,"ĠaplaÅŃ":10785,"ĠOra":10786,"Ġscivole":10787,"antaro":10788,"Ġfrakas":10789,"ĠaÅŃskult":10790,"ĠStalin":10791,"Ġnuklea":10792,"Ġprefijo":10793,"Ġsala":10794,"umeno":10795,"Ġpromo":10796,"ĠPUNK":10797,"Ġhavante":10798,"ĠlanÄīita":10799,"Ġlongo":10800,"ĠSian":10801,"ĠmanÄĿaÄµoj":10802,"ĠGram":10803,"Ġpafmor":10804,"Ġarkitekturo":10805,"Ġminorita":10806,"Ġsciigis":10807,"Ġdeklaro":10808,"ĠBarbara":10809,"ĠGeorgo":10810,"OL":10811,"Ġby":10812,"ĠJugosla":10813,"Ġtrankvil":10814,"Ġkamparanoj":10815,"Ġbonvenaj":10816,"ĠAntverpeno":10817,"Ġalmen":10818,"Ġreak":10819,"ĠRoman":10820,"Ġfiksita":10821,"Ġrezignis":10822,"Ġnemal":10823,"ĠLos":10824,"vito":10825,"Ġunuj":10826,"manier":10827,"Ġapude":10828,"glis":10829,"likon":10830,"uspe":10831,"gale":10832,"Ġmotivoj":10833,"Ġmortas":10834,"orienta":10835,"ĠmalfacilaÄµoj":10836,"Ġtavolo":10837,"Eks":10838,"ladon":10839,"Ġdanco":10840,"Ġatingo":10841,"Ġmalfermitaj":10842,"Ġegala":10843,"RATIA":10844,"ĠIam":10845,"Ġhavanta":10846,"ĠkontraÅŃe":10847,"ĠmalriÄīa":10848,"ĠDomino":10849,"Ġoma":10850,"Ġacido":10851,"diko":10852,"pioj":10853,"Ġpaca":10854,"Ġorn":10855,"Ġnunan":10856,"Ġimag":10857,"Ġgramatika":10858,"ĠinterÅĿanÄĿo":10859,"csay":10860,"zul":10861,"testro":10862,"Ġpoetoj":10863,"kondiÄīoj":10864,"ĠInformoj":10865,"Ġhistorie":10866,"gxoj":10867,"Ġkruroj":10868,"Ġkongrua":10869,"lom":10870,"Ġmalplen":10871,"Ġmalplena":10872,"versaj":10873,"Ġkolegoj":10874,"Ġmedikamen":10875,"Ġvirinojn":10876,"Ġideologio":10877,"Ġdisvastigo":10878,"ĠGaze":10879,"Ġfingroj":10880,"IRRATIA":10881,"ĨįãĨįãĨįãĨįãĨįãĨįãĨįãĨįãĨįãĨįãĨįãĨįãĨįãĨįãĨįãĨįã":10882,"ĠPUNKIRRATIA":10883,"gvo":10884,"kron":10885,"Ġakri":10886,"Ġbaro":10887,"Ġheg":10888,"poloj":10889,"Ġpostul":10890,"ĠÄĿustan":10891,"Ġhejma":10892,"Ġprelegis":10893,"ĠMongolio":10894,"DA":10895,"à´":10896,"Ġsupro":10897,"anov":10898,"ĠTajlando":10899,"datumoj":10900,"Ġinstin":10901,"varm":10902,"Ġludantoj":10903,"Ġfluo":10904,"Ġbiblio":10905,"jaraÄĿa":10906,"Ġ1934":10907,"ĠKartvelio":10908,"Ä±":10909,"cilio":10910,"ĠleÄĿon":10911,"ĠpentraÄµo":10912,"cxe":10913,"vus":10914,"Ġca":10915,"Ġdors":10916,"Ġondo":10917,"Ġpruvis":10918,"2018":10919,"Ġchiu":10920,"/,":10921,"projek":10922,"×Ļ":10923,"Ġflus":10924,"ĠIdo":10925,"Ġdub":10926,"Ġatingos":10927,"Ġprofund":10928,"Ġarkitekto":10929,"lapu":10930,"zila":10931,"Ġkui":10932,"Ġmiliono":10933,"erikaj":10934,"Ġrezigni":10935,"ovo":10936,"Ã¥":10937,"istino":10938,"ĠAS":10939,"Ġsepa":10940,"ĠTE":10941,"ĠaÅŃg":10942,"Ġverkaro":10943,"Ġapre":10944,"dintoj":10945,"Ġtelefono":10946,"Ġalvokoj":10947,"ÄĪefa":10948,"Univers":10949,"kvin":10950,"limo":10951,"Ġmagi":10952,"lingvajn":10953,"ĠÃģ":10954,"Ġferm":10955,"ĠretpaÄĿo":10956,"ĠÅĿtel":10957,"Ġpatrio":10958,"Ġkomenton":10959,"penna":10960,"Ġstudas":10961,"Ġ1947":10962,"Ġsemajnojn":10963,"Ġformale":10964,"Ġkongruas":10965,"Ð³":10966,"ĠBlu":10967,"menoj":10968,"ĠMezoriento":10969,"sci":10970,"Ġmito":10971,"Ġbak":10972,"enerala":10973,"ĠsufiÄīa":10974,"Ġarmeon":10975,"Ġdividas":10976,"Ġpostuli":10977,"Ġinstali":10978,"Ġmun":10979,"Ġvosto":10980,"Ġakum":10981,"ĠInc":10982,"Ġkompletan":10983,"Ġsubstantivo":10984,"timis":10985,"Ġvivan":10986,"Ġplis":10987,"ÄĿitaj":10988,"Ġjunan":10989,"Ġfrancoj":10990,"Ġkamaradoj":10991,"Ġnea":10992,"ĠInvers":10993,"Ġhodia":10994,"ĠVojo":10995,"Ġhebre":10996,"Ġadministranto":10997,"ĠKer":10998,"Ġeklezioj":10999,"Ġinklin":11000,"ĠKalo":11001,"paÄĿon":11002,"Ġkontrakto":11003,"Ġplanis":11004,"Ġkovris":11005,"Ġprononco":11006,"patr":11007,"ĠbuÅĿ":11008,"Ġintence":11009,"Ġkono":11010,"dua":11011,"Ġapliko":11012,"Ġlegadon":11013,"Ġelekt":11014,"Ġbaze":11015,"Ġetno":11016,"Ġekskursoj":11017,"Voj":11018,"Ġamata":11019,"ĠPlen":11020,"ĠTj":11021,"Ġmultan":11022,"ĠOceano":11023,"Ġokazigi":11024,"Ġeksterlande":11025,"istemon":11026,"Ġfunkciojn":11027,"certo":11028,"Ġkompari":11029,"ĠdanÄĿer":11030,"Ġkluboj":11031,"ĠHenry":11032,"inf":11033,"ceo":11034,"Ġpretaj":11035,"Ġ1912":11036,"Ġtrovitaj":11037,"Ġkapt":11038,"unua":11039,"ĠSkot":11040,"Ġpriorita":11041,"ĠCla":11042,"Ġnavig":11043,"ĠAÅŃtuno":11044,"Ġgasto":11045,"Ġmezepoka":11046,"ĠfreÅĿa":11047,"Ġciferoj":11048,"Ġdistribui":11049,"ĠaÅŃda":11050,"ktos":11051,"gramoj":11052,"Ġebloj":11053,"Ġdirektis":11054,"ĠNeniam":11055,"ÑĢÐ°":11056,"Ġhispanaj":11057,"Ġheroo":11058,"ĠEtiopio":11059,"Ġsuna":11060,"tioj":11061,"letojn":11062,"Ġprezentitaj":11063,"Ġjenajn":11064,"ĠÄĪef":11065,"Ġplejo":11066,"grafion":11067,"Ġtrar":11068,"ĠEsperantistojn":11069,"Ġtegmento":11070,"sistemoj":11071,"cite":11072,"Ġreputa":11073,"ĠSeulo":11074,"Ġstrat":11075,"Ġonline":11076,"Ġfiziko":11077,"Ġsubstanco":11078,"Ġafrika":11079,"ï¼ģ":11080,"Ġpornografio":11081,"ĠAlbanio":11082,"bala":11083,"patro":11084,"Ġparolos":11085,"Ġcetera":11086,"ĠÄĪiam":11087,"Ġvizit":11088,"Ġprofito":11089,"Ġtribunalo":11090,"feliÄī":11091,"ĠSho":11092,"ĠJuna":11093,"Ġkantisto":11094,"Ġkunlaboris":11095,"ĠYou":11096,"Ġraso":11097,"Ġforgesi":11098,"Ġ1928":11099,"Ġkotizo":11100,"hum":11101,"ĠendanÄĿer":11102,"Ġsena":11103,"Ġrajt":11104,"Ġdistrikta":11105,"Ġ1969":11106,"Ġsugestas":11107,"ĠFried":11108,"Bra":11109,"Tri":11110,"enz":11111,"Ġorel":11112,"Ġkortu":11113,"Ġ1921":11114,"ĠBolivio":11115,"Ri":11116,"iÄĿantaj":11117,"ĠWord":11118,"Ġmalvarme":11119,"Ġfiguroj":11120,"Ġkonfirmis":11121,"ĠfortikaÄµo":11122,"ĠBangla":11123,"Ġsciu":11124,"Ġpluaj":11125,"Ġargumento":11126,"Ġeuro":11127,"Ġpremio":11128,"mpis":11129,"Ġ1973":11130,"ĠevidentiÄĿis":11131,"Ġartefar":11132,"INVALIDINVALIDINVALIDINVALID":11133,"asa":11134,"els":11135,"ĠAgen":11136,"dustrio":11137,"ĠVilhelmo":11138,"veloj":11139,"inia":11140,"ĠSp":11141,"ild":11142,"manieron":11143,"ĠJi":11144,"ĠLicen":11145,"ĠKaza":11146,"Ġutilaj":11147,"Ġstrang":11148,"Ġkatalun":11149,"âĢ³":11150,"ĠArki":11151,"Ġzorgis":11152,"Ġsovetia":11153,"ĠTanzanio":11154,"haro":11155,"Ġaj":11156,"Ġabo":11157,"ĠSha":11158,"ĠDra":11159,"Ġlokan":11160,"Ġmaturi":11161,"ĠTies":11162,"Ġscion":11163,"ĠKondiÄī":11164,"Ġturisma":11165,"Ġkonduk":11166,"tekstoj":11167,"ĠeÅŃrojn":11168,"Ser":11169,"Ġburo":11170,"Ġtes":11171,"Ġpermeson":11172,"Ġkutimoj":11173,"Ġinfanon":11174,"Ġadreson":11175,"ĠJakob":11176,"regiono":11177,"Ġregantoj":11178,"ĠIst":11179,"Ġforigis":11180,"ĠÄīarma":11181,"Ġmaron":11182,"Ġplibonigo":11183,"Ġ1907":11184,"Ġamikino":11185,"Ġtrajtojn":11186,"Ġinstrumen":11187,"lizab":11188,"kestro":11189,"ĠKutime":11190,"Ġodor":11191,"ĠMian":11192,"Ġadmon":11193,"lot":11194,"Ġtipe":11195,"ksig":11196,"Ġvertika":11197,"dent":11198,"korp":11199,"Ġmalpura":11200,"vigis":11201,"lat":11202,"Ġinte":11203,"ĠDer":11204,"ĠIpernity":11205,"cela":11206,"Ġmonteto":11207,"Ġdue":11208,"Ġamika":11209,"Ġkostoj":11210,"Ġtitolita":11211,"Ġmetodon":11212,"Ġpritraktas":11213,"Ġflugiloj":11214,"gho":11215,"pom":11216,"Ġvitro":11217,"ĠSV":11218,"ĠGron":11219,"Ġamuza":11220,"Ġsignifa":11221,"Ġdiskutis":11222,"posed":11223,"ĠAlÄĿerio":11224,"Ġelef":11225,"briÄĿi":11226,"Ġstrioj":11227,"ĠFonduso":11228,"ood":11229,"Ġekkoni":11230,"germane":11231,"ĠTokiponon":11232,"hÃ¡":11233,"well":11234,"Ġprimi":11235,"ĠMili":11236,"Ġsolaj":11237,"ĠplaÄī":11238,"Ġ1929":11239,"Ġsoldato":11240,"Ġenmeti":11241,"Ġlicencitaj":11242,"Komunejo":11243,"Ġkonto":11244,"ĠÄīevalo":11245,"ther":11246,"Ġsonon":11247,"ĠFreder":11248,"Ġsoveta":11249,"Ġfaktoroj":11250,"Ġalproksi":11251,"Ġhaj":11252,"dimen":11253,"ĠSene":11254,"ĠMeto":11255,"Ġfarus":11256,"ĠtuÅĿis":11257,"ĠbonÅĿan":11258,"Ġekskluzive":11259,"folio":11260,"Ġspertas":11261,"Ġmaso":11262,"Ġhundoj":11263,"Ġdosieruja":11264,"Ġsekura":11265,"Ġrespondecas":11266,"Ġpoezi":11267,"ĠPaÄĿo":11268,"Ġnecesis":11269,"Ġbazan":11270,"Ġ1906":11271,"Ġuto":11272,"Ġmaksimume":11273,"dreso":11274,"ĠOkcidento":11275,"respe":11276,"ĠÅľtata":11277,"Ġjenan":11278,"Ġurbojn":11279,"Ġmalkonten":11280,"xas":11281,"Ġmirinde":11282,"ĠBandar":11283,"Ġkafo":11284,"ĠNico":11285,"Ġatenti":11286,"Ġsanktaj":11287,"Ġvolumo":11288,"Ġpugo":11289,"Ġparametron":11290,"vÃ¡n":11291,"Ġserion":11292,"Ġprezent":11293,"ĠZamenhofa":11294,"Ġkonsistanta":11295,"ĠRespon":11296,"Ġstarigas":11297,"cegovino":11298,"ĠÄīiaj":11299,"ĠGva":11300,"Ġsalut":11301,"Ġarmea":11302,"Ġgriza":11303,"ĠInsulo":11304,"ĠKis":11305,"pose":11306,"mea":11307,"edro":11308,"rinta":11309,"ĠOlimpi":11310,"ert":11311,"oran":11312,"Ġrecep":11313,"nikov":11314,"Ġmemori":11315,"ĠÄīeesti":11316,"czy":11317,"ticle":11318,"ĠdisÄīiploj":11319,"signi":11320,"Ġlimas":11321,"Ġjuraj":11322,"Ġpros":11323,"ildo":11324,"Ġfals":11325,"Ġbelulino":11326,"Ġgubernio":11327,"kler":11328,"Ã«":11329,"Ġagres":11330,"Ġkonvena":11331,"ĠStel":11332,"ĠÄīiela":11333,"ĠfaÅĿ":11334,"Ġsavis":11335,"Ġmurdis":11336,"Ġ1959":11337,"ĠBerno":11338,"krom":11339,"ew":11340,"erto":11341,"ĠIvano":11342,"Ġalporti":11343,"Ġakompanis":11344,"Ġtumul":11345,"Zamenhof":11346,"tena":11347,"Ġatent":11348,"Ġprojektojn":11349,"nomon":11350,"IP":11351,"Ġkonso":11352,"oseo":11353,"ĠEsperantilo":11354,"Ġfilmojn":11355,"Ġoficisto":11356,"lerni":11357,"Ġmalbonan":11358,"ighas":11359,"ĠNASA":11360,"opera":11361,"tejon":11362,"ĠTen":11363,"ĠÅĿve":11364,"eblo":11365,"Ġekstra":11366,"Ġroko":11367,"Ġhonora":11368,"Ġkonceptoj":11369,"Ġmalpermesis":11370,"ĠNordameriko":11371,"Ġ###":11372,"Ġoce":11373,"Ġ101":11374,"ĠNask":11375,"Ġaliuloj":11376,"ĠSvisa":11377,"Ġaltru":11378,"Ġperdita":11379,"Ġkapri":11380,"bula":11381,"hoo":11382,"Ġmalsana":11383,"Ġkritik":11384,"ĠedziÄĿis":11385,"81":11386,"ago":11387,"yl":11388,"ĠÄīeloj":11389,"Ġkonfor":11390,"ĠÅĿal":11391,"Ġsufikso":11392,"Ġliveras":11393,"Ġetimo":11394,"ĠSuno":11395,"ĠleÄĿojn":11396,"igitajn":11397,"Ġhelpu":11398,"antino":11399,"Ġbezonon":11400,"Ġsomera":11401,"\":":11402,"Ġdekoj":11403,"Ġalmo":11404,"Ġplenaj":11405,"Ġdonaci":11406,"Ġsuperre":11407,"Ġsav":11408,"Ġdecidojn":11409,"Ġvideblaj":11410,"ĠÅľanh":11411,"?...":11412,"Est":11413,"indas":11414,"povo":11415,"ĠLibio":11416,"Ġnuntempaj":11417,"Ġparolu":11418,"Ġskribitaj":11419,"Ġredakcio":11420,"ĠvojaÄĿon":11421,"ÅĿutita":11422,"ĠBuller":11423,"ĠNiÄĿerio":11424,"Îµ":11425,"Ġvag":11426,"Ġreal":11427,"Ġanoni":11428,"Ġpublikigitaj":11429,"flanka":11430,"Ġpiedojn":11431,"Ïģ":11432,"Ġidio":11433,"Ġlimon":11434,"zelo":11435,"Ġkulturan":11436,"ĠAntaÅŃa":11437,"Ġfesti":11438,"Ġvekis":11439,"Ġpoemojn":11440,"aper":11441,"tablo":11442,"Ġdeka":11443,"ĠNas":11444,"Ġvendo":11445,"ĠDoc":11446,"Ġvirinon":11447,"Ġestontaj":11448,"ekzamen":11449,"ÐĶ":11450,"Ġza":11451,"Ġrepa":11452,"ĠLapenna":11453,"tenojn":11454,"Ġsend":11455,"Ġgrupojn":11456,"Ġestonte":11457,"ĠImperi":11458,"Ġekzempleroj":11459,"Ġakcidento":11460,"Ġeksterordinara":11461,"ĠRenkontiÄĿo":11462,"zel":11463,"ĠestaÄµoj":11464,"Ġelpa":11465,"ĠIT":11466,"Ġpublikan":11467,"Ġsesa":11468,"ĠStefan":11469,"Ġkopii":11470,"ĠafiÅĿo":11471,"ĠTekstoj":11472,"Ġkodon":11473,"Ġplanita":11474,"Ġobjektojn":11475,"Ġmalkovro":11476,"Ġ1909":11477,"Ġbibliotekoj":11478,"Ġsevera":11479,"Ġterorismo":11480,"Komence":11481,"Ġnesufi":11482,"'re":11483,"ÂĿ":11484,"Ñľ":11485,"Ġdepon":11486,"Ġinva":11487,"Ġuzebla":11488,"Ġregistris":11489,"ĠKazi":11490,"unuo":11491,"ĠMON":11492,"ĠMona":11493,"ĠSekva":11494,"Ġbazajn":11495,"ĠPrusio":11496,"ĠZuriko":11497,"klojn":11498,"vaÄµojn":11499,"Ġekzakte":11500,"tindaj":11501,"Ġrilatajn":11502,"Ġkuracis":11503,"Ġsperta":11504,"Ġaspekt":11505,"ĠPlie":11506,"Ġsignojn":11507,"ĠvoÄīdonado":11508,"ĠDeklara":11509,"ĠLuksemburgo":11510,"ĠEvidente":11511,"pot":11512,"Ġhalo":11513,"Ġcertan":11514,"Ġprincipojn":11515,"Ġminaco":11516,"Ġsevere":11517,"ĠLam":11518,"aÅŃl":11519,"Ġkaze":11520,"Ġtrano":11521,"Ġinternan":11522,"Ġinstituto":11523,"Ġfanfar":11524,"Ġseminar":11525,"Ġping":11526,"ĠNiaj":11527,"Ġrezisto":11528,"Ġpersonon":11529,"Tial":11530,"Ġrusia":11531,"Ġesperantistaro":11532,"Ġdefendas":11533,"Ġokupita":11534,"Ġinstrumentoj":11535,"Ġtertremo":11536,"ĠAni":11537,"Ġkunvenis":11538,"ĠDol":11539,"fizi":11540,"ĠEngel":11541,"Ġfruktojn":11542,"Ġmalfacilaj":11543,"Ġfamilianoj":11544,"ĠpoÅĿto":11545,"ĠkaÅĿas":11546,"Ġdemokratia":11547,"Ġbalotoj":11548,"guage":11549,"Ġskolo":11550,"Ġbrem":11551,"ĠVikipedia":11552,"Ġtriboj":11553,"Ġapogis":11554,"Ġmallongan":11555,"ĠdolÄī":11556,"Ġetendis":11557,"Ġbabilejo":11558,"ĠBurundo":11559,"Don":11560,"ilu":11561,"tivojn":11562,"ĠAmo":11563,"facon":11564,"Ġ1941":11565,"ĠÄīeestantoj":11566,"Ġmizero":11567,"MA":11568,"ktanta":11569,"Ð·":11570,"stria":11571,"Ġ1900":11572,"Ġmetita":11573,"ĠPreparoj":11574,"ĠEstu":11575,"ĠLasta":11576,"ĠSmith":11577,"ĠunuiÄĿo":11578,"fera":11579,"Ġmetio":11580,"Ġbritaj":11581,"pÃ©":11582,"ĠÙ":11583,"Ġverboj":11584,"Ġdetruita":11585,"kapablon":11586,"çļ":11587,"nomoj":11588,"Ġprincipe":11589,"Ġmomenton":11590,"ĠTonkin":11591,"Ġprovos":11592,"Ġmulti":11593,"Ġbieno":11594,"Ġpolitikajn":11595,"Ġrespondecon":11596,"Ġligon":11597,"ĠeldonaÄµoj":11598,"ĠvilaÄĿon":11599,"Ġesperis":11600,"Ġkoncepton":11601,"Ġleciono":11602,"Ġfarante":11603,"mondo":11604,"Ġkonfuzi":11605,"tat":11606,"roc":11607,"Ġovojn":11608,"aleco":11609,"ĠÄĿeneralaj":11610,"Esperanta":11611,"Ġbuso":11612,"Ġglas":11613,"Ġgradoj":11614,"ĠloÄĿata":11615,"ĠEkvadoro":11616,"Ġakiras":11617,"talogo":11618,"2016":11619,"Ġagojn":11620,"Ġrompi":11621,"Ġlerneja":11622,"bs":11623,"Ø±":11624,"ĠSel":11625,"tualaj":11626,"Ġsocioj":11627,"portoj":11628,"ĠHungar":11629,"Ġglavo":11630,"Ġdirekton":11631,"ĠMemor":11632,"Ju":11633,"ĠSara":11634,"kontro":11635,"Ġracia":11636,"Ġsiatempe":11637,"Ġhistorian":11638,"âĢĻ.":11639,"Ġmalnovajn":11640,"Ġreligion":11641,"Ġlingvistiko":11642,"ĠOsmo":11643,"domoj":11644,"Ġzo":11645,"Ġera":11646,"ĠÄīo":11647,"ĠShi":11648,"ĠItala":11649,"ĠGali":11650,"Ġtroa":11651,"Ġkredon":11652,"Ġtribo":11653,"ĠserÄīado":11654,"rajtoj":11655,"ĠMat":11656,"Ġdormi":11657,"Ġraportas":11658,"Ġ1942":11659,"Ġoportuna":11660,"ĠUrugvajo":11661,"Ġadek":11662,"Ġsektoro":11663,"Ġspecialajn":11664,"Ġflankon":11665,"ĠPermes":11666,"Ġgast":11667,"Ġplibone":11668,"Ġ1923":11669,"ĠÄĿenti":11670,"Ġneatendite":11671,"Ġdemis":11672,"ĠâĢĻ":11673,"ĠBron":11674,"Ġhavigi":11675,"Ġvirina":11676,"Ġstarigo":11677,"ĠSerÄīi":11678,"On":11679,"ĠKipro":11680,"Ã¡h":11681,"ĠMay":11682,"Ġrimarki":11683,"Ġstrikte":11684,"Ġrememoris":11685,"Ġkonkludo":11686,"Ġresta":11687,"Ġtransformas":11688,"ĠdimanÄīo":11689,"Ġsalajro":11690,"Ġpartnero":11691,"ä»":11692,"aciojn":11693,"ĠHej":11694,"mejo":11695,"Ġlega":11696,"Ġeblus":11697,"Ġpeco":11698,"Ġklarigoj":11699,"Institu":11700,"Ġsabato":11701,"Ã¨re":11702,"ĠKalocsay":11703,"HA":11704,"dge":11705,"Ġbezonos":11706,"Ġsociala":11707,"Ġmodeloj":11708,"Ġteknikaj":11709,"ĠBanko":11710,"kfoje":11711,"Ġkriterioj":11712,"Ġintenc":11713,"Ġbazitan":11714,"Ġimago":11715,"Ġdistingas":11716,"jev":11717,"ĠEvangelio":11718,"PR":11719,"banoj":11720,"Ġspri":11721,"enaj":11722,"Ġhela":11723,"ĠGanao":11724,"propri":11725,"irka":11726,"Ġjudaj":11727,"Ġprofilon":11728,"Ġpruvo":11729,"Ġrekonis":11730,"Ġspiriton":11731,"ĠSilfer":11732,"babvo":11733,"ĠMunkeno":11734,"kil":11735,"titajn":11736,"Ġenka":11737,"Ġkuketojn":11738,"Ġkomunikadon":11739,"Ġlongajn":11740,"KOKOKOKOKOKOKOKOKOKOKOKOKOKOKOKOKOKOKOKOKOKOKOKOKOKOKOKOKOKOKOKO":11741,"arch":11742,"losi":11743,"ditan":11744,"bergo":11745,"Ġmilitistoj":11746,"Ġinstigi":11747,"ĠSudano":11748,"ĠPlena":11749,"Ġkoinci":11750,"Ġsenli":11751,"Ġsanktan":11752,"ĠLevi":11753,"ĠLouis":11754,"Ġbara":11755,"ĠantaÅŃdi":11756,"Ġsanktuloj":11757,"daux":11758,"Ġlingvajn":11759,"Ġmotor":11760,"ĠkreiÄĿis":11761,"Ġfrapis":11762,"bitaj":11763,"Ġpresti":11764,"Ġvizitoj":11765,"Ġ1946":11766,"ĠpreÄĿejoj":11767,"ĠTria":11768,"âĹĭ":11769,"Ġpolemi":11770,"Ġinv":11771,"Ġneniom":11772,"Ġvestojn":11773,"Bonvolu":11774,"Rila":11775,"info":11776,"ase":11777,"ĠManu":11778,"Ġdise":11779,"Ġ64":11780,"Ġasembleo":11781,"Ġeklezia":11782,"Ġbestojn":11783,"Junularo":11784,"ĠJoseph":11785,"titoj":11786,"Ġmalhon":11787,"milita":11788,"Ġduko":11789,"linioj":11790,"Ġcivitano":11791,"php":11792,"MalgraÅŃ":11793,"ĠPalaco":11794,"mapo":11795,"Ġ1911":11796,"ktataj":11797,"Ġsupraj":11798,"dikto":11799,"Ġgala":11800,"geco":11801,"Ġbeko":11802,"Ġsignife":11803,"ĠSendepen":11804,"Ġ1958":11805,"Ġkoncentrejo":11806,"Ġaviadiloj":11807,"Ġhezitu":11808,"ao":11809,"ĠApud":11810,"pek":11811,"Ġpapi":11812,"Ġvendas":11813,"mini":11814,"Ġproduktita":11815,"Ġdoktrino":11816,"Ġmontrita":11817,"Ġmomentoj":11818,"Sta":11819,"Ġboj":11820,"ĠÄīian":11821,"ĠVera":11822,"aÅŃde":11823,"ĠEntute":11824,"Ġkomunista":11825,"Ġpetro":11826,"ĠÅĿanÄĿon":11827,"ĠXi":11828,"ĠÅĿtuparo":11829,"ĠAugus":11830,"ĠMinisterio":11831,"aÅŃa":11832,"materi":11833,"fido":11834,"Ġmagis":11835,"ĠZo":11836,"Ġludanto":11837,"ĠKarolo":11838,"lekso":11839,"dagas":11840,"Ġespereble":11841,"ĠPrecipe":11842,"finan":11843,"Ġtabelo":11844,"Pollando":11845,"Ġkran":11846,"Ġdevoj":11847,"Ġsenkom":11848,"Ġnot":11849,"Ġnobe":11850,"Ġsupozis":11851,"Ġstrangaj":11852,"Ġkoncertoj":11853,"Ġestablis":11854,"Ġparencoj":11855,"Ġole":11856,"mpro":11857,"rinoj":11858,"Ġsekvo":11859,"Ġnafto":11860,"Ġfrance":11861,"Ġkolekton":11862,"ĠHazarda":11863,"ĠKondiÄīoj":11864,"ĠJudoj":11865,"Ġbankoj":11866,"digitaj":11867,"ĠKenjo":11868,"kampan":11869,"Ġkarbon":11870,"Ġaboni":11871,"Ġkapitano":11872,"Ġspektaklo":11873,"Ġstatuso":11874,"Societo":11875,"Ġaltajn":11876,"kaÄµon":11877,"Ġreganta":11878,"trin":11879,"Ġkomentojn":11880,"uokaze":11881,"Ġbrako":11882,"Nuntempe":11883,"ETV":11884,"ĠrifuÄĿintoj":11885,"tajpu":11886,"Ġkunvi":11887,"ĠBele":11888,"kcion":11889,"Ġkolum":11890,"Ġfermis":11891,"Ġmalnov":11892,"Ġ1937":11893,"supre":11894,"Ġmalaperas":11895,"Ġmemstara":11896,"ĠKonstantino":11897,"ĠJugoslavio":11898,"Go":11899,"gun":11900,"Âĵ":11901,"Ġela":11902,"Ġpanta":11903,"Ġsko":11904,"tiel":11905,"alta":11906,"Ġkonjek":11907,"ÅĿir":11908,"vatorio":11909,"petoj":11910,"ket":11911,"Ġracio":11912,"pare":11913,"ĠMargar":11914,"amiko":11915,"way":11916,"Ġsimpl":11917,"Ġfacilan":11918,"Ġvideble":11919,"Ġstatuson":11920,"Rus":11921,"Ġemis":11922,"Ġdam":11923,"likoj":11924,"vataj":11925,"Ġsubit":11926,"ĠrestaÄµoj":11927,"Kie":11928,"Ġâĸ":11929,"ĠaranÄĿon":11930,"ĠÐ¿":11931,"ĠeÅŃropanoj":11932,"Ġpanor":11933,"ĠKambo":11934,"Ġgustum":11935,"Ġkomision":11936,"gmail":11937,"hing":11938,"anier":11939,"Äīado":11940,"kir":11941,"Ġkredantoj":11942,"Ġfidas":11943,"Ġatmosfero":11944,"Jor":11945,"enca":11946,"Ġparoj":11947,"Ġtrovig":11948,"tikoloj":11949,"Ġfaktojn":11950,"Ġplenumo":11951,"Ġinstigas":11952,"Ġproduktojn":11953,"ĠDume":11954,"cript":11955,"Ġmontros":11956,"ĠBelorusio":11957,"ĠSkotlando":11958,"Ġsupozi":11959,"pic":11960,"Ġpecoj":11961,"Ġsuperflu":11962,"Ġkariero":11963,"Ġsemajnon":11964,"Ġasertoj":11965,"ĠUNES":11966,"Ġfantas":11967,"ĠZimbabvo":11968,"Ġdete":11969,"tilio":11970,"Ġnedi":11971,"ĠSenato":11972,"uzis":11973,"Ġkelka":11974,"ĠWit":11975,"Ġpreferis":11976,"Ġ1966":11977,"ĠdaÅŃrigas":11978,"Ġkontinentoj":11979,"Ġpreterlas":11980,"Ġinstrumento":11981,"Ġproprieto":11982,"Ġekhavis":11983,"Vo":11984,"kaÅĿ":11985,"ust":11986,"aÅŃto":11987,"golo":11988,"Ġtragedio":11989,"Ã¡l":11990,"ĠDiego":11991,"Ġzorgo":11992,"Ġsilente":11993,"KE":11994,"Ð¿":11995,"ans":11996,"Ġmaldika":11997,"Ġkunigi":11998,"ĠTiele":11999,"Ġsintenon":12000,"Ġamba":12001,"ette":12002,"ĠÅĿanco":12003,"Ġsocion":12004,"ĠsonÄĿo":12005,"Ġmalkovrita":12006,"Ġanonci":12007,"ÐµÐ½":12008,"pelis":12009,"Ġelektronika":12010,"Ġjudojn":12011,"xu":12012,"Ġmamoj":12013,"dozo":12014,"ĠpreÄĿi":12015,"Ġaperigis":12016,"Ġurbocentro":12017,"Ġinteresojn":12018,"Ġsciencisto":12019,"ĠKari":12020,"Ġimplik":12021,"Ġrekonas":12022,"Ġkunsidoj":12023,"ĠLernejo":12024,"dur":12025,"Ġrele":12026,"ĠElizab":12027,"Ġalimaniere":12028,"kaja":12029,"Ġkodoj":12030,"havas":12031,"Ġplanko":12032,"Ġ99":12033,"ĠDie":12034,"Ġkristnas":12035,"ĠvespermanÄĿo":12036,"Ġlarmoj":12037,"Ġestablita":12038,"Hejmo":12039,"falis":12040,"rintoj":12041,"tintoj":12042,"Ġindikis":12043,"Ġordonojn":12044,"phy":12045,"ĠBenino":12046,"ĠArabio":12047,"Ġlegendo":12048,"Ġkg":12049,"old":12050,"Ġspeciali":12051,"Ġlogika":12052,"ĠÄĿoje":12053,"Ġpriju":12054,"Ġhomamaso":12055,"Ġrezultis":12056,"Ġmalfermas":12057,"Ġamasoj":12058,"Ġkomandanto":12059,"Ġkafejo":12060,"ĠBangladeÅĿo":12061,"!Â»":12062,"ĠSci":12063,"Ġokci":12064,"tanaj":12065,"vera":12066,"Ġpafi":12067,"Ġpapera":12068,"vojaÄĿ":12069,"ĠAlta":12070,"ĠâĪ":12071,"ĠlarÄĿe":12072,"Ġefektivigi":12073,"Ġfervoja":12074,"arbo":12075,"ess":12076,"ĠItal":12077,"ĠViaj":12078,"vinoj":12079,"Ġkonstruas":12080,"vortaro":12081,"Ġkonsonantoj":12082,"zambi":12083,"LY":12084,"pala":12085,"ĠNovaj":12086,"Ġmezuro":12087,"Ġfojfoje":12088,"Ġchiam":12089,"Ġmaljunuloj":12090,"ĠKosovo":12091,"Ġklasifi":12092,"Ġkontraste":12093,"ĠgeedziÄĿo":12094,"ĠVladimir":12095,"ĠBru":12096,"Ġfortik":12097,"Ġkorpoj":12098,"ĠtransloÄĿ":12099,"Ġvinber":12100,"ĠKune":12101,"Ġgeografiaj":12102,"ĠAir":12103,"socia":12104,"Ġposttagmeze":12105,"Ġkovritaj":12106,"mina":12107,"ĠAri":12108,"Ġspekti":12109,"ÅĿima":12110,"Ġ1925":12111,"Ġfajron":12112,"Ġfutbalo":12113,"ĠLisbono":12114,"ĠKy":12115,"kodi":12116,"ĠAaron":12117,"Ġmalre":12118,"Ġmagn":12119,"ĠRegiono":12120,"Ġatentigis":12121,"Ġeksterlandanoj":12122,"multaj":12123,"ĠUniversity":12124,"Ġmalbonon":12125,"Ġeksperimen":12126,"âĹĭâĹĭ":12127,"Ġoreloj":12128,"dinta":12129,"Ġeldoni":12130,"Ġliteraturon":12131,"ÅĿanÄĿ":12132,"Ġsporto":12133,"Ġskemo":12134,"xe":12135,"ĠMur":12136,"Ġkontakton":12137,"Ġpalestinanoj":12138,"estaj":12139,"Ġmiras":12140,"mezo":12141,"Ġpentr":12142,"Ġkomunisma":12143,"Ä¥an":12144,"ĠmalfermiÄĿis":12145,"kondukis":12146,"Ġapogi":12147,"Ġkorekti":12148,"ĠSimple":12149,"Federacio":12150,"ĠÄĿer":12151,"ĠRemo":12152,"Ġlitova":12153,"Ġitalaj":12154,"king":12155,"Ġkomplik":12156,"Ġkonscien":12157,"Tiun":12158,"Ġmezuri":12159,"Eniru":12160,"diÄĿi":12161,"Ġmiris":12162,"ĠEsperante":12163,"bezon":12164,"Ġdiskuton":12165,"Ġbotan":12166,"ĠfuÄĿis":12167,"batalo":12168,"ffice":12169,"tegorioj":12170,"gha":12171,"rime":12172,"ĠKab":12173,"ĠStran":12174,"ĠPÃ©":12175,"Ġdisponigas":12176,"ĠNikara":12177,"Ġrapido":12178,"Ġaktivas":12179,"Ġidentigi":12180,"Ġcifereca":12181,"Ġtrapasi":12182,"Ġilojn":12183,"ĠFlori":12184,"ĠBavario":12185,"Ġamasa":12186,"ĠVerduloj":12187,"ĠSekretario":12188,"Ġdiferencon":12189,"ĠtaÅŃgan":12190,"Ġaraboj":12191,"ĠGramTrans":12192,"Ġaltern":12193,"dube":12194,"Ġverkitaj":12195,"ĠraÅŃ":12196,"Ġsolan":12197,"Ġkontrolon":12198,"ÅĿanÄĿo":12199,"Ġ1962":12200,"Ġmurdo":12201,"Ligiloj":12202,"Ġlitur":12203,"Ġgaja":12204,"ziÄĿis":12205,"ĠFut":12206,"Ġmortos":12207,"ĠUnuiÄĿo":12208,"ĠebenaÄµo":12209,"dk":12210,"Ġkomparo":12211,"celo":12212,"Ġsentojn":12213,"kuri":12214,"ĠAndal":12215,"Ġidealoj":12216,"Ġprogramado":12217,"Ġpreskrib":12218,"Ġsignifoj":12219,"Ġampleksan":12220,"ĠVarsovia":12221,"tebr":12222,"Ġregxo":12223,"ĠHab":12224,"pari":12225,"Ġkolektas":12226,"Ġmajus":12227,"Ġanonco":12228,"ĠKalifornio":12229,"Bi":12230,"ktro":12231,"ĠFesto":12232,"ekdo":12233,"Ġliberigis":12234,"Ġrigardata":12235,"ĠSiberio":12236,"ĠanstataÅŃigi":12237,"ĠIsla":12238,"tempan":12239,"Ġsolidareco":12240,"ĠTuni":12241,"Ġplivas":12242,"Ġtraf":12243,"Ġsanktulo":12244,"Ġstilon":12245,"kvanto":12246,"lumo":12247,"Ġmuz":12248,"Ġripozi":12249,"ĠJem":12250,"Ġkorte":12251,"Äīefe":12252,"Ġdomojn":12253,"Ġgarantias":12254,"facil":12255,"EÄī":12256,"ĠriÄīe":12257,"veturo":12258,"Ġgvidado":12259,"Ġ240":12260,"Ġ1927":12261,"Ġlegebla":12262,"ĠISO":12263,"tadoj":12264,"todo":12265,"peo":12266,"ekde":12267,"tropo":12268,"Ġuzos":12269,"Ġmortigas":12270,"Ġtotala":12271,"Ġ1972":12272,"ĠKamer":12273,"Francio":12274,"SA":12275,"Ġrekor":12276,"ĠRub":12277,"Ġles":12278,"prezento":12279,"Ġkomunumon":12280,"sone":12281,"ĠSupra":12282,"Ġstarigita":12283,"upr":12284,"Ch":12285,"ĠÄīem":12286,"Ġvirus":12287,"Ġlen":12288,"Ġekis":12289,"Ġfali":12290,"Ġbicik":12291,"ĠSudo":12292,"Ġmisio":12293,"Ġblankan":12294,"kompreneble":12295,"ĠHercegovino":12296,"ĠJosef":12297,"Ġlecionoj":12298,"ajnis":12299,"Ġpriparo":12300,"ĠTV":12301,"Ġmondaj":12302,"ĠOb":12303,"ĠÅģ":12304,"ĠPatrino":12305,"Ġabrup":12306,"Ġboato":12307,"ĠTag":12308,"sukces":12309,"Ġstatistiko":12310,"Ġdestinita":12311,"fama":12312,"pento":12313,"Ġorden":12314,"Ġnecesan":12315,"Ġflugas":12316,"Ġmemoru":12317,"ĠÐ²":12318,"2010":12319,"Ġmalsupra":12320,"Ġstimu":12321,"ĠUzbek":12322,"Ġfronto":12323,"tale":12324,"regi":12325,"ĠMeso":12326,"ĠaÅŃtoj":12327,"verko":12328,"ĠÐĶ":12329,"konduko":12330,"ĠKongreson":12331,"ĠJordanio":12332,"gana":12333,"Ġdog":12334,"portis":12335,"ĠÃī":12336,"andro":12337,"Ġpotencoj":12338,"Ġveturas":12339,"Ġepiskopoj":12340,"esan":12341,"ĠSva":12342,"ĠGen":12343,"Ġpotenci":12344,"Ġatak":12345,"Ġ1924":12346,"Ġjardeko":12347,"CC":12348,"Ġies":12349,"pez":12350,"Ġekparolis":12351,"Ġkoroj":12352,"Ġankora":12353,"Ġsangon":12354,"Ġalvokis":12355,"Ġhispanan":12356,"III":12357,"Ġtrajto":12358,"ĠEduardo":12359,"ĠVaÅĿingtono":12360,"tl":12361,"Ġ`":12362,"inamo":12363,"Ġnefor":12364,"Ġgento":12365,"Ġkompleksa":12366,"Ġvesperon":12367,"Ġgardi":12368,"Ġatesto":12369,"ĠDocumenta":12370,"ciÃ³n":12371,"demo":12372,"aÅŃskul":12373,"ĠHomo":12374,"Ġkiamaniere":12375,"ĠÄīefro":12376,"ĠRein":12377,"Ġpersonan":12378,"ĠBach":12379,"Ġeventon":12380,"Ġnaturon":12381,"ĠAkademi":12382,"ĠFrancisco":12383,"Ġdenaska":12384,"nar":12385,"sas":12386,"wig":12387,"rigis":12388,"Ġvigle":12389,"Ġlimigi":12390,"Ġmaljunaj":12391,"ĠformiÄĿis":12392,"Ġfabriko":12393,"ĠJohann":12394,"Ġfolk":12395,"gue":12396,"Ġprofeto":12397,"vitavy":12398,"Ġdosierojn":12399,"ort":12400,"Ġregadon":12401,"tisma":12402,"ÅĿin":12403,"ĠMadagas":12404,"Ġkruela":12405,"ĠÄīap":12406,"Ġtransiro":12407,"Ġplejofte":12408,"Land":12409,"cl":12410,"iam":12411,"Ġsfero":12412,"Ġaldonita":12413,"Ġrespondojn":12414,"kostaj":12415,"publik":12416,"Ġvesperman":12417,"Ġkomencos":12418,"Ġagnoskis":12419,"ĠÄĿenas":12420,"Ġmomente":12421,"Ġteorion":12422,"ĠBatalo":12423,"Ad":12424,"homa":12425,"mova":12426,"ĠFebruaro":12427,"prenantoj":12428,"longa":12429,"Ġkielo":12430,"ĠStatu":12431,"Ġreprodukti":12432,"VI":12433,"ĠaÄĿ":12434,"ĠNan":12435,"ĠAndro":12436,"Ġminuto":12437,"Tago":12438,"Ġafable":12439,"Ġsume":12440,"librojn":12441,"perfek":12442,"Ġsenkul":12443,"Ġsenuti":12444,"Ġklavar":12445,"ĠKvinpetalo":12446,"Ġflo":12447,"kadis":12448,"vala":12449,"ĠBene":12450,"Ġfarata":12451,"Ġkaco":12452,"Ġcerteco":12453,"Ġkreskon":12454,"Ġmilda":12455,"ĠYo":12456,"ĠPoÅĿtkodo":12457,"Ġvidante":12458,"Ġoksig":12459,"ĠAÄ¥":12460,"Ġnad":12461,"ĠPatri":12462,"Ġevoluas":12463,"ĠSufi":12464,"ĠbuÄĿeto":12465,"ĠZamTV":12466,"Ġpodkas":12467,"ĠHaitio":12468,"edoj":12469,"Ġ\\":12470,"Ġsino":12471,"Ġalkuti":12472,"Ġil":12473,"Ġviron":12474,"lantojn":12475,"ĠHas":12476,"Ġsciante":12477,"Ġ1965":12478,"Ġapogo":12479,"ĠMolda":12480,"Ġekzeku":12481,"ap":12482,"Ġgeni":12483,"Ġsendos":12484,"Ġrilat":12485,"Ġmodesta":12486,"Ġ1954":12487,"fred":12488,"ĠinÄĿeniero":12489,"Pra":12490,"Ġpuno":12491,"Ġmalfavor":12492,"ĠHA":12493,"Ġnomumita":12494,"...\"":12495,"Ġspegu":12496,"Ġmarko":12497,"komo":12498,"Ġ1964":12499,"ĠMikaelo":12500,"kli":12501,"ĠÅĿtor":12502,"lana":12503,"reno":12504,"Ġmetu":12505,"Ġanglaj":12506,"Ġrajtis":12507,"ĠSimile":12508,"2012":12509,"mpa":12510,"ËĨ":12511,"åı":12512,"une":12513,"ĠNami":12514,"iado":12515,"Ġarti":12516,"Ġklaran":12517,"Ġpersonajn":12518,"egro":12519,"ĠfuÅĿ":12520,"ĠkaÅĿita":12521,"ĠCxu":12522,"gr":12523,"ledo":12524,"Ġvivos":12525,"Ġmigran":12526,"Ġlikva":12527,"ĠTel":12528,"Ġkatoj":12529,"Ġsociajn":12530,"Ġrakontojn":12531,"Ġrezulte":12532,"Ġ1971":12533,"Ġimperiismo":12534,"Ġarabaj":12535,"Ġtaksis":12536,"Ã§o":12537,"dreson":12538,"grandaj":12539,"ĠMonato":12540,"Ġfotilo":12541,"Ġflanken":12542,"Ġduone":12543,"Ġfalsa":12544,"ĠBalta":12545,"ping":12546,"inujo":12547,"ĠLigoj":12548,"ĠAL":12549,"dec":12550,"kies":12551,"Ġkonsilas":12552,"alista":12553,"membroj":12554,"Ġalvokas":12555,"Ġrond":12556,"Ġvenont":12557,"Ġhistoriistoj":12558,"Ġaba":12559,"Ġellas":12560,"trop":12561,"ĠantaÅŃju":12562,"orgaÅŃ":12563,"ĠBerlin":12564,"Ġemble":12565,"landano":12566,"Ġstulta":12567,"Ġnuboj":12568,"Nor":12569,"ÂĹ":12570,"teko":12571,"ĠTal":12572,"ĠBol":12573,"uzio":12574,"ekzis":12575,"Ġlernadon":12576,"Ġliberigita":12577,"multe":12578,"Ġ1963":12579,"Ġfestoj":12580,"2004":12581,"ĠpaÅĿojn":12582,"ĠposedaÄµo":12583,"çļĦ":12584,"aÄī":12585,"pti":12586,"organo":12587,"ĠKem":12588,"Ġkunfan":12589,"vanoj":12590,"Ġpermesinto":12591,"Ġpraktikaj":12592,"iguel":12593,"ĠWikipedia":12594,"Ġagrable":12595,"Ġfemin":12596,"yi":12597,"ĠGr":12598,"Ġrolas":12599,"Ġeraron":12600,"ghas":12601,"ĠDiser":12602,"Ġherbo":12603,"Ġfundamentaj":12604,"Ġaludas":12605,"ebro":12606,"Ġgraco":12607,"Ġ1957":12608,"Ġtrum":12609,"Ab":12610,"Via":12611,"vuloj":12612,"Ġcind":12613,"Ġsurloke":12614,"Ġ62":12615,"Ġeksteren":12616,"Ġdevigas":12617,"ĠBohem":12618,"Ġprofesie":12619,"ĠkonatiÄĿi":12620,"Ġsimpati":12621,"Rim":12622,"Ġial":12623,"Ġgard":12624,"Ġgiganta":12625,"vico":12626,"ĠIF":12627,"Ġeklo":12628,"geo":12629,"Ġfilinon":12630,"Ġkompleks":12631,"Ġkovrilo":12632,"Ġprincipon":12633,"ĠAlex":12634,"ĠindiÄĿenaj":12635,"Ġmamo":12636,"Ġintri":12637,"Ġkuna":12638,"Ġformita":12639,"Ġorgen":12640,"turno":12641,"ĠBour":12642,"insuloj":12643,"ĠNikaragvo":12644,")[":12645,"Ġalto":12646,"Ġtabuo":12647,"ktejo":12648,"Ġeldonon":12649,"Ġfaciligi":12650,"Ġestontecon":12651,"Ġnaturan":12652,"Ġvenontan":12653,"Ġsurprizo":12654,"Ġproklamis":12655,"ĠNomspaco":12656,"EP":12657,"vina":12658,"Ġæ":12659,"viÄĩ":12660,"ĠParis":12661,"Ġvundi":12662,"Ġfenomenoj":12663,"Ele":12664,"Ġlai":12665,"Ġkunvenon":12666,"Ġforvi":12667,"Ġpenson":12668,"ĠÅ½":12669,"Ġkunlaboras":12670,"benaÄµo":12671,"iujn":12672,"Ġpsikologio":12673,"Ġstandar":12674,"Ġekstaris":12675,"ĠDocumentation":12676,"Ġvis":12677,"ĠloÄĿi":12678,"ches":12679,"Ġoficiroj":12680,"Ġnumer":12681,"Ġsomer":12682,"Ġagnoski":12683,"derna":12684,"Ġhelpa":12685,"strato":12686,"Ġgazeton":12687,"Ġhalt":12688,"Ġeminenta":12689,"Ġslovaka":12690,"ciÄĿis":12691,"Ġrekt":12692,"ĠAktu":12693,"Ġmalvas":12694,"Ġinterno":12695,"keton":12696,"Ġventro":12697,"ĠKatedralo":12698,"Ġdens":12699,"Ġsesio":12700,"Ġklopodo":12701,"Ġmalpermesita":12702,"Ġkvieta":12703,"Ġtrapasis":12704,"manto":12705,"ĠAnta":12706,"ĠKomunista":12707,"Ġsang":12708,"Ġsituo":12709,"ĠÄīefepiskopo":12710,"Ġlimigoj":12711,"ĠArabaj":12712,"Peterburgo":12713,"Ga":12714,"Ð±":12715,"ĠMembro":12716,"Ġnaciismo":12717,"Instru":12718,"Ġeliras":12719,"BA":12720,"Ġks":12721,"Ġlige":12722,"ĠPierre":12723,"Ġfarm":12724,"gando":12725,"ĠMilano":12726,"Ġ1961":12727,"Ġbrakoj":12728,"Ġmalvarm":12729,"oku":12730,"tiÄĿoj":12731,"Ġalparo":12732,"ĠSvitavy":12733,"Ġgel":12734,"Ġpete":12735,"Ġkontaktojn":12736,"2011":12737,"Ġsupoziganta":12738,"Ġsalutas":12739,"ĠKorea":12740,"Ġoperaciumo":12741,"ĠWikiTrans":12742,"km":12743,"Ġtris":12744,"Ġligna":12745,"Ġgamo":12746,"initaj":12747,"Ġobsta":12748,"ĠpuÅĿ":12749,"Ġcxiujn":12750,"Ġisraela":12751,"garo":12752,"dit":12753,"ĠDr":12754,"tenegro":12755,"Ġ1901":12756,"ĠRezul":12757,"Ġforlasas":12758,"ĠAntaÅŃe":12759,"Ġsorton":12760,"Åį":12761,"kao":12762,"Ġtapi":12763,"Ġnobel":12764,"Ġscioj":12765,"Ġplenigi":12766,"Ġpartoprenantojn":12767,"ĠUnion":12768,"ĠRoy":12769,"Ġprezentos":12770,"Ġritmo":12771,"Certe":12772,"Gvineo":12773,"ey":12774,"even":12775,"Ġaeron":12776,"low":12777,"ĠMed":12778,"ĠRad":12779,"fere":12780,"Ġnomatan":12781,"ĠÄīuro":12782,"serio":12783,"Ġpreparas":12784,"Ġrondoj":12785,"Ġenspezoj":12786,"ĠAbraham":12787,"wald":12788,"inen":12789,"Ġredon":12790,"âĢĺ":12791,"osaÅŃ":12792,"Ġprelegon":12793,"ĠmaÅĿinoj":12794,"ĠaveraÄĿa":12795,"Ġpekoj":12796,"ĠbolÅĿe":12797,"Ġekspedicio":12798,"alto":12799,"Ġreton":12800,"ĠPhi":12801,"buro":12802,"Ġaktivado":12803,"friko":12804,"Ġeniro":12805,"Ġ1953":12806,"Ġpublikon":12807,"Ġkompromis":12808,"emis":12809,"ement":12810,"ĠGuj":12811,"vere":12812,"danoj":12813,"Ġlaste":12814,"Ġmaterialojn":12815,"Ġteorioj":12816,"Ġtrono":12817,"Ġsolid":12818,"aktiva":12819,"Ġrimarkinda":12820,"undation":12821,"DL":12822,"Ġpolan":12823,"ĠÄīies":12824,"tube":12825,"Ġspecif":12826,"Ġsolvoj":12827,"Ġveter":12828,"Ġ1926":12829,"Ġasis":12830,"ĠButano":12831,"Ġvalorojn":12832,"2009":12833,"ĠPanamo":12834,"ĠFuku":12835,"pris":12836,"ĠEmir":12837,"Ġsuperis":12838,"ĠMalsupra":12839,"skultu":12840,"Ġmensogo":12841,"Ġetnaj":12842,"CA":12843,"eÄī":12844,"Ġá":12845,"Ġovoj":12846,"ĠVI":12847,"verboj":12848,"meco":12849,"Ġvendejoj":12850,"lingvon":12851,"Ġmilitaj":12852,"Ġatentigas":12853,"Ġbatalon":12854,"Ġriveron":12855,"Ġbrilis":12856,"Ġagadojn":12857,"ÅĻÃŃ":12858,"Ä¥ivo":12859,"ĠinaÅŃguro":12860,"Okaz":12861,"UEA":12862,"ĠÑģ":12863,"elj":12864,"ÅĿtono":12865,"ĠApo":12866,"Ġpend":12867,"Ġorient":12868,"Ġperiodoj":12869,"ĠaÅŃskultas":12870,"ĠOrganizaÄµo":12871,"ĠaÅŃtonom":12872,"Fun":12873,"MS":12874,"ropo":12875,"ÅŃten":12876,"kop":12877,"bolo":12878,"Ġhomajn":12879,"ados":12880,"Ġgeome":12881,"strate":12882,"tradukoj":12883,",,":12884,"ÃĦ":12885,"Ġindul":12886,"ranoj":12887,"duo":12888,"laja":12889,"Ġkomprenon":12890,"Ġliberigo":12891,"Ġridetis":12892,"ĠSrilanko":12893,"Î»":12894,"Ġipernity":12895,"Ġsekundoj":12896,"ĠÅľtu":12897,"certe":12898,"Ġdekomence":12899,"ĠLando":12900,"ĠÄīefajn":12901,"ĠReda":12902,"ĠmalriÄīeco":12903,"Ġaktualaj":12904,"ĠUSD":12905,"ĠneÅŃ":12906,"ĠkaÅĿis":12907,"Ġkonscienco":12908,"Ġbatis":12909,"Ġmarnivelo":12910,"komputi":12911,"Ġvojojn":12912,"Ġkuras":12913,"ĠAleksander":12914,"ĠomaÄĿe":12915,"Ġukraina":12916,"armeo":12917,"Ġ1913":12918,"Ġpatri":12919,"ĠdatiÄĿas":12920,"Ġbonon":12921,"Ġmorta":12922,"ĠWind":12923,"Ġatentu":12924,"ĠÅĿtalo":12925,"ĠMontenegro":12926,"Ġfokus":12927,"Ġamase":12928,"Ġintensa":12929,"kvalita":12930,"Ġpolvo":12931,"[âĢ¦]":12932,"Ġenam":12933,"ĠTr":12934,"ĠforÄµe":12935,"Ġkuiri":12936,"irkaux":12937,"Ġpresita":12938,"Ġpatrinon":12939,"Ġgaso":12940,"foja":12941,"ĠJorge":12942,"Ġdistingivoj":12943,"nacia":12944,"Ġtimu":12945,"ĠLub":12946,"Ġpatrujo":12947,"Ġkomercistoj":12948,"ĠFoundation":12949,"Ġprofiti":12950,"Ġkvalifi":12951,"ĠMadagaskaro":12952,"Ami":12953,"gxi":12954,"Ġsinta":12955,"Ġspegulo":12956,"temalo":12957,"Ġislamanoj":12958,"Ġslovakoj":12959,"Is":12960,"Ġitin":12961,"Ġportu":12962,"kontraÅŃ":12963,"ĠFami":12964,"Ġnotoj":12965,"Ġfrap":12966,"Ġ95":12967,"Ġsalon":12968,"Ġdormis":12969,"Ġpreparita":12970,"Ġreaki":12971,"Ġgrandegaj":12972,"Ġintelekt":12973,"Ġcivilizo":12974,"familio":12975,"Ġenkorp":12976,"ĠNata":12977,"Ġmank":12978,"Ġhavigis":12979,"Ġregularo":12980,"ĠEstus":12981,"Ġekkonis":12982,"'ll":12983,"Kan":12984,"mulo":12985,"Ġpret":12986,"ĠJamaj":12987,"Ġapartajn":12988,"Ġkaptas":12989,"Ġinflui":12990,"Ġkritikis":12991,"tj":12992,"ÏĦ":12993,"Ġlagoj":12994,"Ġreferenco":12995,"paron":12996,"Ġinsu":12997,"Ġspeciojn":12998,"Ġveturo":12999,"ĠGolfo":13000,"ĠSekureco":13001,"ĠKazaÄ¥io":13002,"ĠSS":13003,"konkurso":13004,"ĠVizito":13005,"aligo":13006,"Ġrilata":13007,"Ġ700":13008,"ĠMalgranda":13009,"flugis":13010,"Ġordinar":13011,"Ġbalotado":13012,"Ġhip":13013,"ĠavantaÄĿojn":13014,"ĠKongresa":13015,"Ġarestita":13016,"ĠWalter":13017,"ĠĠĠĠĠĠĠĠĠĠĠĠĠĠĠĠĠĠĠĠĠĠĠĠĠĠĠĠĠĠĠĠ":13018,"HO":13019,"TU":13020,"Ġteamoj":13021,"Ġsekvon":13022,"prokras":13023,"Ġkontrolis":13024,"birdoj":13025,"od":13026,"Ġasek":13027,"lokon":13028,"Ġreform":13029,"Ġkonspi":13030,"ĠKomita":13031,"ĠjuÄĿo":13032,"Ġdonac":13033,"Ġinvito":13034,"ĠpaÅĿon":13035,"Ġeventuala":13036,"fara":13037,"Ġkilo":13038,"Ġopozi":13039,"ĠFS":13040,"prenu":13041,"ĠEnlanda":13042,"Ġpeton":13043,"Ġgvidata":13044,"Ġprenita":13045,"ĠJuven":13046,"Ġnigran":13047,"ĠdolÄīa":13048,"Ġnervo":13049,"wis":13050,"ĠStre":13051,"Ġkunpre":13052,"Ġkompen":13053,"noto":13054,"ĠcitaÄµo":13055,"Ġsignifojn":13056,"Ġadresoj":13057,"Ġkalkulas":13058,"Ġmembraro":13059,"ĠvidindaÄµoj":13060,"feld":13061,"sz":13062,"Ġlibre":13063,"terno":13064,"Ġnenie":13065,"ĠMarx":13066,"daÅŃra":13067,"ĠXXX":13068,"ĠperiodaÄµoj":13069,"ĠParagvajo":13070,"Ġhimno":13071,"tigado":13072,"Ġopozicio":13073,"ĠPio":13074,"ĠTam":13075,"Ġanglo":13076,"Ġesploristoj":13077,"ĠIsraelon":13078,"Ġinverse":13079,"tavo":13080,"ĠÄīinoj":13081,"ĠCis":13082,"Ã©e":13083,"Ġoptim":13084,"Ġvidvino":13085,"Ġkapablojn":13086,"INA":13087,"Ġseksumi":13088,"Ġrealeco":13089,"Ġmalvenko":13090,"Ġtrejna":13091,"Kvin":13092,"toma":13093,"ĠDas":13094,"ĠÅĿipon":13095,"ĠWas":13096,"ĠPortalo":13097,"Ġhaltigi":13098,"Ġegalaj":13099,"Ġaprobita":13100,"Ġkategoriigi":13101,"dema":13102,"Ġhaven":13103,"ĠPapu":13104,"ĠJoMo":13105,"ĠBoc":13106,"Ġdentojn":13107,"Ġbaloto":13108,"ĠVatikan":13109,"Ġreprodukta":13110,"Ġtelevida":13111,"Ġprovizora":13112,"Ġprovizore":13113,"Te":13114,"tov":13115,"ĠStar":13116,"ĠlaÅŃdire":13117,"Ġmotivo":13118,"Ġparolante":13119,"Ġkortego":13120,"Ġkomprenos":13121,"Ġcetero":13122,"ĠÅĿtatan":13123,"ĠRobin":13124,"Ġgrandska":13125,"Ġeksplodo":13126,"ĠsovaÄĿa":13127,"Ġviktimo":13128,"Granda":13129,"Ġrubriko":13130,"Her":13131,"tistojn":13132,"ĠHil":13133,"Ġsignifi":13134,"Ġamason":13135,"tinato":13136,"interes":13137,"ĠteatraÄµo":13138,"Ġripeti":13139,"ĠinformiÄĿi":13140,"Ġpromeni":13141,"Ġpalpe":13142,"birdo":13143,"ĠmalÄĿusta":13144,"bes":13145,"peranta":13146,"Ġdiino":13147,"treto":13148,"Ġmalapro":13149,"Ġmalavanta":13150,"Ġmasak":13151,"2013":13152,"Ġhoron":13153,"Ġeklezi":13154,"dn":13155,"tagoj":13156,"Ġastro":13157,"Ġakces":13158,"Ġfinas":13159,"ĠFranco":13160,"ĠDank":13161,"ĠtaÅŃgaj":13162,"Ġsomere":13163,"Ġterminon":13164,"==":13165,"fado":13166,"ĠsidiÄĿis":13167,"oling":13168,"Ġordeno":13169,"Ġaldonan":13170,"bat":13171,"ales":13172,"Ġredaktor":13173,"Ġobservas":13174,"Ġcirklo":13175,"breco":13176,"ĠSamuel":13177,"Ġlibero":13178,"ĠCXar":13179,"EÅŃro":13180,"Ġiaj":13181,"ernak":13182,"speci":13183,"Ġbici":13184,"Ġlerta":13185,"ĠmesaÄĿoj":13186,"Ġmalhelpis":13187,"×ķ":13188,"Ġ).":13189,"tabulo":13190,"ĠAristo":13191,"ĠseÄĿo":13192,"madon":13193,"Ġtaba":13194,"ktiko":13195,"Ġemeri":13196,"Ġklientojn":13197,"telitaj":13198,"ĠFernando":13199,"ĠJemeno":13200,"\"?":13201,"ÅĿojn":13202,"precipe":13203,"Ġfidel":13204,"Ġbrile":13205,"Ġamplekso":13206,"Ġgramatikaj":13207,"ĠmallarÄĿa":13208,"litan":13209,"Ġber":13210,"Ġsime":13211,"vet":13212,"ĠChe":13213,"Ġrapidan":13214,"ĠÃ¸":13215,"Ġmodelon":13216,"Ġredaktis":13217,"Ġesploras":13218,"2006":13219,"Ġbulteno":13220,"Ġornamita":13221,"Ġsinsekvaj":13222,"Ġbabilado":13223,"Ġeseo":13224,"giaj":13225,"cker":13226,"ĠmanÄĿaÄµon":13227,"Ġorientaj":13228,"rigard":13229,"Ġsekretari":13230,"Ġkroni":13231,"Ameriko":13232,"Instituto":13233,"ĠMoldavio":13234,"Klubo":13235,"ĠGÃ¶":13236,"Ġnocioj":13237,"Ġpez":13238,"Ġprenos":13239,"ĠfeliÄīon":13240,"Ġapog":13241,"Ġprezidanton":13242,"bero":13243,"ril":13244,"Ġakvoj":13245,"Ġfontojn":13246,"Ġfundo":13247,"Ġfilojn":13248,"Ġkonservado":13249,"ĠFondaÄµo":13250,"Ġsabate":13251,"Ġbaston":13252,"ĠTransilvanio":13253,"Ġnukleaj":13254,"kolekto":13255,"Ġgelern":13256,"Venon":13257,"cka":13258,"ĠMy":13259,"Ġprovu":13260,"ĠBeli":13261,"ĠUgando":13262,"Ġnotis":13263,"Ġkroata":13264,"Ġfluti":13265,"Ġimpreso":13266,"ĠokupiÄĿi":13267,"Ġembaras":13268,"ĠFriedrich":13269,"BO":13270,"sat":13271,"inkluzive":13272,"ĠAh":13273,"ajna":13274,"Ġdik":13275,"Ġmodo":13276,"Ġioma":13277,"Ġludon":13278,"ĠvoÄīdono":13279,"ĠKruco":13280,"ĀĀĀĀĀĀĀĀĀĀĀĀĀĀĀĀĀĀĀĀĀĀĀĀĀĀĀĀĀĀĀĀ":13281,"ĠBandarQ":13282,"VE":13283,"cina":13284,"okaz":13285,"Ġbeb":13286,"Ġpolojn":13287,"ĠFron":13288,"Ġsenar":13289,"kion":13290,"nica":13291,"Ġatentigi":13292,"kontra":13293,"Ġminus":13294,"Ġrenkonto":13295,"Ġpraktikas":13296,"Ġordonon":13297,"ĠvojaÄĿas":13298,"Ġparlamenta":13299,"ĠSalvadoro":13300,"ĠPlaco":13301,"ĠErn":13302,"Ġsuveren":13303,"AC":13304,"Ġfia":13305,"ranko":13306,"lub":13307,"ĠÄĪa":13308,"grada":13309,"Ġvokas":13310,"Ġmortigita":13311,"ĠMalantaÅŃ":13312,"Ġpian":13313,"vortojn":13314,"ĠÐ½":13315,"ĠInternacian":13316,"Ġefikas":13317,"ĠTaÄĿi":13318,"ĠCentr":13319,"Ġ1955":13320,"Ġrekoni":13321,"ĠGronlando":13322,"ĠGvatemalo":13323,"iva":13324,"pdf":13325,"xa":13326,"Ġtir":13327,"Ġpreven":13328,"Ġkampon":13329,"tune":13330,"Ġvalidi":13331,"Ġunuopa":13332,"Ġinstruistino":13333,"ĠBonaero":13334,"Ġpafmortigis":13335,"grun":13336,"enkov":13337,"ĠVikimedia":13338,"Ġkomencon":13339,"Ġmisi":13340,"ĠaranÄĿita":13341,"Ġintense":13342,"Ã¤n":13343,"ĠLink":13344,"Ġesceptoj":13345,"Ġkomunumaro":13346,"fel":13347,"gine":13348,"horo":13349,"ĠKura":13350,"ĠEEU":13351,"Ġkredeble":13352,"Ġfiki":13353,"Ġ1943":13354,"Ġarmilojn":13355,"Ġtrarigar":13356,"Ġburokra":13357,"ĠJamajko":13358,"Fo":13359,"haÅŃ":13360,"nuna":13361,"ĠLKK":13362,"igajn":13363,"ĠAmen":13364,"vistoj":13365,"âĢĿ)":13366,"Ġseriozaj":13367,"frato":13368,"Ġformala":13369,"ight":13370,"Ġfronte":13371,"Script":13372,"sing":13373,"kapabla":13374,"Ġvent":13375,"ÄĿadon":13376,"ĠNatura":13377,"Ġdormas":13378,"Ġdosieron":13379,"2008":13380,"ĠESPERANTO":13381,"Ġfekun":13382,"ÛĮ":13383,"ĠMiguel":13384,"ĠAtribu":13385,"Ġpersa":13386,"ĠDenove":13387,"Ġvendejo":13388,"ĠAngolo":13389,"Ġlinion":13390,"Ġplanlingvo":13391,"Ġkapablaj":13392,"ĠMozambi":13393,"ĠMoskva":13394,"Ġetendi":13395,"Ġvalida":13396,"Ġeksperimento":13397,"ĠKastelo":13398,"ĠFrankfur":13399,"ipernity":13400,"usence":13401,"deci":13402,"Ġtrotu":13403,"Ġlango":13404,"ĠIndekso":13405,"Ġvokalo":13406,"Ġamori":13407,"Ġparoladoj":13408,"Ġenketo":13409,"Ġtendencoj":13410,"ĠTeatro":13411,"ĠKamboÄĿo":13412,"Ġvivaj":13413,"profes":13414,"eth":13415,"Ġnaz":13416,"Ġmalsame":13417,"ĠGiorgio":13418,"ËĪ":13419,"vivis":13420,"matiko":13421,"tropi":13422,"Ġmultege":13423,"ĠSaharo":13424,"ĠRivero":13425,"Ġdetruo":13426,"Ġagnoskita":13427,"Ġgriz":13428,"Ġbordoj":13429,"ĠJacques":13430,"Bal":13431,"zek":13432,"Ġira":13433,"ĠCal":13434,"Ġtraktis":13435,"ĠMichel":13436,"pura":13437,"Ġcitas":13438,"Ġveturilo":13439,"Ġapogas":13440,"tikedoj":13441,"ĠvariaÄµoj":13442,"Ġkonkretaj":13443,"Ġâĸº":13444,"Con":13445,"Ġego":13446,"Ġretaj":13447,"ĠmalÅĿa":13448,"ĠLau":13449,"Ġparado":13450,"Ġorbi":13451,"ĠOpen":13452,"Ġfidinda":13453,"ĠÅ¬":13454,"Ġdeziroj":13455,"Ġmuzikisto":13456,"Ġredak":13457,"Ġcxirkaux":13458,"Ġdefendis":13459,"ĠTradi":13460,"ĠÄīesigi":13461,"produktado":13462,"Ġnekonataj":13463,"ĠAmiko":13464,"Ġakura":13465,"Ġrealaj":13466,"rankvi":13467,"Ġkoli":13468,"ĠÄīiuokaze":13469,"Ġcentroj":13470,"Ġkart":13471,"Ġ024":13472,"Ġprofundo":13473,"ĠHelsin":13474,"Da":13475,"bos":13476,"Ġenu":13477,"ĠAsi":13478,"Ġelfos":13479,"Ġpresi":13480,"ĠarÄ¥":13481,"ĠOto":13482,"âĢĿ).":13483,"Ġtriono":13484,"Ġkantono":13485,"Ġplanojn":13486,"Ġdistingo":13487,"ĠManif":13488,"Afrika":13489,"ðŁĺ¨ðŁĺ¨ðŁĺ¨ðŁĺ¨":13490,"Sem":13491,"ding":13492,"ĠBras":13493,"Ġekri":13494,"mpoj":13495,"Ġevoluigi":13496,"Ġefikoj":13497,"Ð¾ÑĢ":13498,"Ġscenoj":13499,"ĠKrimeo":13500,"ĠmalriÄīuloj":13501,"Ġdiskriminacio":13502,"witter":13503,"300":13504,"eoj":13505,"Ġazen":13506,"Ġaliris":13507,"Ġekshibicio":13508,"Ġaldonante":13509,"Ġpronomo":13510,"ĠVenu":13511,"Ġsalutis":13512,"Ġavangar":13513,"ĠTrini":13514,"%,":13515,"sulo":13516,"Ġoceano":13517,"defen":13518,"ĠkontraÅŃbata":13519,"ĠUnuiÄĿinta":13520,"Ġsceno":13521,"ĠmoviÄĿas":13522,"Ġabunde":13523,"beno":13524,"cc":13525,"signo":13526,"Ġtimig":13527,"Ġkunvo":13528,"Ġkoali":13529,"Ġpentra":13530,"Ġplendis":13531,"Ġdanki":13532,"ĠRuslando":13533,"Ġcivil":13534,"proksime":13535,"Ġposedantoj":13536,"Ġakompanas":13537,"tariko":13538,"Ġatom":13539,"Ġastronomo":13540,"Ġhospitalo":13541,"hausen":13542,"âĢĭ":13543,"Ġekspon":13544,"ĠMarie":13545,"Ġtiamaj":13546,"ĠÄīirkaÅŃe":13547,"Ġeventojn":13548,"Ġimpul":13549,"ĠBahÃ¡":13550,"Ġvokaloj":13551,"ĠÄµazo":13552,"ĠNamibio":13553,"ĠMozambiko":13554,"%.":13555,"EO":13556,"TR":13557,"Ġadaptita":13558,"Ġligojn":13559,"ĠMÃ¼":13560,"ĠIsa":13561,"Ġhave":13562,"erne":13563,"Ġcicoj":13564,"ĠPatr":13565,"vorton":13566,"Ġhejmon":13567,"ÅĿip":13568,"ãģ®":13569,"ĠfianÄī":13570,"ĠSenegalo":13571,"ĠTunizio":13572,"aki":13573,"sche":13574,"uch":13575,"vd":13576,"ĠEL":13577,"emia":13578,"tudo":13579,"ĠIV":13580,"Ġpeno":13581,"ĠfinaÄµo":13582,"treo":13583,"Ġmuzikaj":13584,"Ġonklo":13585,"Ġmallongigo":13586,"Ġmidzi":13587,"TER":13588,"onaj":13589,"eng":13590,"diro":13591,"ĠarÄĿen":13592,"Ġsinjoroj":13593,"Ġsinago":13594,"Ġcico":13595,"Kiom":13596,"farejo":13597,"Ġiamaj":13598,"Ġ1952":13599,"ĠmiksaÄµo":13600,"ĠfraÅŃl":13601,"ĠSinjorino":13602,"tien":13603,"omojn":13604,"Ġpaten":13605,"Ġkonstern":13606,"laboris":13607,"Ġvestita":13608,"brun":13609,"Ġesprimojn":13610,"ĠkaÅŃzita":13611,"ĠdimanÄīe":13612,"ĠDeklaracio":13613,"hora":13614,"Ġdispar":13615,"gala":13616,"Ġmetalo":13617,"kulturaj":13618,"Ġkulpas":13619,"Ġcenz":13620,"Ġnaciajn":13621,"Ġmistera":13622,"Ġpotencaj":13623,"ĠÐ¡":13624,"ĠPreÄĿejo":13625,"ĠDanke":13626,"Ġkovr":13627,"Ġdonitaj":13628,"ĠRuando":13629,"Ġadoles":13630,"Neniu":13631,"Ġtutaj":13632,"ĠVic":13633,"Ġfidon":13634,"sonaj":13635,"gitan":13636,"Ġmemoron":13637,"Ġfingro":13638,"Ġsekaj":13639,"ĠNenio":13640,"iÄĿadis":13641,"ĠFe":13642,"ĠHero":13643,"Ġdubo":13644,"Ġnokta":13645,"ruse":13646,"Ġpugoj":13647,"Ġprofesio":13648,"cerne":13649,"Ġprizono":13650,"vec":13651,"pago":13652,"Ġkabin":13653,"toraj":13654,"Ġkrimoj":13655,"Ġasocion":13656,"ĠKolon":13657,"ĠEdukado":13658,"ĠaÄīet":13659,"ĠIstvÃ¡n":13660,"ĠKameruno":13661,"Ġkomi":13662,"Ġteoria":13663,"ĠCy":13664,"Ġargen":13665,"ĠÅĿiajn":13666,"Ġmarki":13667,"ĠSimon":13668,"Ġsilentis":13669,"Ġparoladon":13670,"ĠavantaÄĿo":13671,"Ġekzemplojn":13672,"Ġrompis":13673,"Ġfulmo":13674,"Ġkondamnita":13675,"ĠJuventus":13676,"VV":13677,"ombo":13678,"ĠIma":13679,"Ġinterple":13680,"Ġpretigi":13681,"caya":13682,"Ġscivo":13683,"Ġkurb":13684,"Ġflugis":13685,"Ġsubtenantoj":13686,"Ġeduk":13687,"ĠKortumo":13688,"Ġampleksas":13689,"ĠMembroj":13690,"ĠMembriÄĿi":13691,"ĠretpoÅĿ":13692,"ĠKostariko":13693,"scienca":13694,"Ġspontan":13695,"Äīilo":13696,"Ġperi":13697,"Ġekfunkci":13698,"ĠaliÄĿo":13699,"Ġfaroj":13700,"ĠKonser":13701,"Ġjuneco":13702,"Ġkonsiderante":13703,"ÅĿipoj":13704,"Ġtagman":13705,"politiko":13706,"Ġerao":13707,"nojn":13708,"mataj":13709,"tritaj":13710,"ĠÂĵ":13711,"Ġparolanto":13712,"Ġkaptita":13713,"Ġ130":13714,"Ġelektos":13715,"ells":13716,"ĠTrinidado":13717,"Dio":13718,"tacio":13719,"Ġnepra":13720,"vaScript":13721,"ĠriÄīeco":13722,"Ġblogoj":13723,"ĠDaniel":13724,"Ġmerkre":13725,"Ġbabili":13726,"ĠHonduro":13727,"Ġviolon":13728,"Ġgluteoj":13729,"ĠUzbekio":13730,"ĠEmirlandoj":13731,"eria":13732,"entan":13733,"Ġalkla":13734,"ĠÄīiesulino":13735,"paÅĿ":13736,"nologio":13737,"Ġlegos":13738,"Ġoficiro":13739,"Ġtabl":13740,"Ġkondamni":13741,"Ġemfazas":13742,"Ġjubileo":13743,"Aten":13744,"tch":13745,"Ġiz":13746,"ĠSES":13747,"Ġnovelo":13748,"Ġvenigis":13749,"Ġciklo":13750,"hien":13751,"ĠpiÄīo":13752,"Ġspertaj":13753,"Ġmondmapo":13754,"Ġanoncas":13755,"Ġrevoluci":13756,"Ġfroma":13757,"Ġmalsanulejo":13758,"Ġmed":13759,"Ġfest":13760,"ĠGvi":13761,"Ġtrafas":13762,"Ġraba":13763,"Ġfaktoro":13764,"Ġdezirus":13765,"ĠÃ¢":13766,"Ġesploristo":13767,"Ġrul":13768,"Ġgarantii":13769,"Ġgluteo":13770,"ĠTestamento":13771,"cxi":13772,"Ġoj":13773,"lataj":13774,"Ġdepost":13775,"ĠKER":13776,"deven":13777,"vendejo":13778,"ĠAlbert":13779,"ĠMak":13780,"ĠFrancaj":13781,"Ġimpost":13782,"valor":13783,"Ġarmeoj":13784,"Ġobjekton":13785,"ĠSovetio":13786,"Ġrespektivaj":13787,"ĠProjekta":13788,"Pala":13789,"iden":13790,"muni":13791,"ofici":13792,"ĠLaoso":13793,"ĠIru":13794,"Ġridin":13795,"beria":13796,"Ġkokri":13797,"Ġkomenti":13798,"Ġformulo":13799,"Ġ1890":13800,"Ġsinsekvo":13801,"Ġfantazi":13802,"kiewicz":13803,"ĠteÄ¥ni":13804,"gg":13805,"ĠCho":13806,"Ġmetal":13807,"Ġsuperrigar":13808,"ĠloÄĿloko":13809,"Ġspecifita":13810,"tigata":13811,"ĠKastilio":13812,"Ġkolonio":13813,"IF":13814,"urboj":13815,"ĠSanta":13816,"ĠÄīielon":13817,"Ġpiano":13818,"ĠToba":13819,"Ġokulvi":13820,"Ġteritoriojn":13821,"Ġherooj":13822,"ĠJakobo":13823,"Ġdekor":13824,"ÄĿajn":13825,"dir":13826,"ĠAkvo":13827,"Ġunuoj":13828,"male":13829,"Ġkoloron":13830,"Ġmonaton":13831,"Ġredakt":13832,"Ġhonore":13833,"Ġerojn":13834,"ãĥ¼":13835,"ĠÄīeÄ¥aj":13836,"Ġinsektoj":13837,"Ġkonvenas":13838,"Ġsuden":13839,"ĠpaÅĿis":13840,"ĠOber":13841,"pante":13842,"Ġerotismo":13843,"Ġelstaras":13844,"Ġshang":13845,"Ġvizitantojn":13846,"Ġkapitula":13847,"revolu":13848,"Ġvoje":13849,"ĠÄīeno":13850,"esio":13851,"Ġina":13852,"tradi":13853,"distrikto":13854,"Ġmembri":13855,"Ġsakra":13856,"ĠPortala":13857,"Ġaserti":13858,"Ġvaloraj":13859,"ĠStefano":13860,"Ġkavalir":13861,"ĠmatÄīo":13862,"indan":13863,"Ġelpe":13864,"Ġeklernis":13865,"Ġsalo":13866,"Ġregistara":13867,"Ġinstruadon":13868,"ĠDuon":13869,"Ġliteraturaj":13870,"ĠOrdeno":13871,"Ġpacientoj":13872,"Ġtrajnoj":13873,"Ġentuziasmo":13874,"Ġjuris":13875,"Ġprogno":13876,"Ġlos":13877,"ĠOficiala":13878,"likan":13879,"ĠsufiÄīan":13880,"Ġhoneste":13881,"akcep":13882,"ĠRapi":13883,"Ġepokoj":13884,"Ġmuzeon":13885,"Teks":13886,"Ġetajn":13887,"ining":13888,"tiÄĿu":13889,"datigita":13890,"ÄĿataj":13891,"Ġgefiloj":13892,"Ġkonsideru":13893,"ĠKole":13894,"Ġkalum":13895,"ĠTopic":13896,"Ġromanon":13897,"Ġpanjo":13898,"Ġmalsukcesis":13899,"ĠMajstro":13900,"ĠKirgi":13901,"Sankta":13902,"ĠInversigu":13903,"foni":13904,"Ġnoto":13905,"ĠViktor":13906,"ĠOkciden":13907,"Ġforgesas":13908,"Ġspirit":13909,"Ã¡ndez":13910,"Ġtabernak":13911,"Ġmalrapida":13912,"ĠSciencoj":13913,"ĠMeksika":13914,"Ġlingvisto":13915,"Ġmidzo":13916,"Ġadvokato":13917,"neto":13918,"ĠMir":13919,"ĠPovas":13920,"foli":13921,"ĠpiÄīoj":13922,"ĠnudaÄµo":13923,"ĠÃĦ":13924,"Ġrespektas":13925,"Ġfestis":13926,"ĠOkazis":13927,"ĠItalujo":13928,"ghi":13929,"wska":13930,"teton":13931,"Ġdie":13932,"ĠOk":13933,"centon":13934,"Ġmarkita":13935,"Ġeksterlando":13936,"Ġutilajn":13937,"ĠsesdeknaÅŃi":13938,"Ġripozo":13939,"SO":13940,"Ġenkar":13941,"Ġkiajn":13942,"ĠreÄĿon":13943,"Ġgek":13944,"dantojn":13945,"Ġlangumi":13946,"Ġbat":13947,"ĠMalio":13948,"Ġevitas":13949,"Ġhonesta":13950,"Ġcirku":13951,"Ġimagas":13952,"Ġkalkulis":13953,"Ġplimulton":13954,"Ġmamego":13955,"Ġmamegoj":13956,".âĢĶ":13957,"jen":13958,"Ġbebo":13959,"Äµaro":13960,"ĠFara":13961,"paca":13962,"ĠTian":13963,"Ġtrem":13964,"plene":13965,"Ġvariaj":13966,"ĠSebas":13967,"ianoj":13968,"Ġale":13969,"rigo":13970,"peras":13971,"ĠPren":13972,"ĠDub":13973,"ĠIvo":13974,"bordo":13975,"Ġdevigita":13976,"ĠArto":13977,"Ġscience":13978,"Ġbatalas":13979,"ĠVersio":13980,"ĠYork":13981,"ĠLong":13982,"Ġliveri":13983,"________":13984,"Vir":13985,"feto":13986,"likaj":13987,"ĠÄīin":13988,"deta":13989,"konata":13990,"Ġmankon":13991,"Ġpolic":13992,"Ġfilmeto":13993,"ĠdaÅŃros":13994,"Ġkroman":13995,"Ġ85":13996,"Ġkonsilio":13997,"Ð°Ð½":13998,"Ġmalpermesas":13999,"Ġagrablan":14000,"tta":14001,"Ġsum":14002,"pov":14003,"ĠFis":14004,"ĠGDR":14005,"Ġsankti":14006,"Ġeldonoj":14007,"ĠLeono":14008,"Ġataki":14009,"ĠLondon":14010,"Ġlingvistoj":14011,"ĠJesuon":14012,"tica":14013,"ĠKE":14014,"ĠfariÄĿu":14015,"Ġnobla":14016,"Ġnorm":14017,"Ġunikan":14018,"Ġbutonon":14019,"scienco":14020,"Ġmidzumo":14021,"Ġafabla":14022,"Ġkuirejo":14023,"KI":14024,"Kre":14025,"Ġneri":14026,"ludoj":14027,"ĠhavaÄµo":14028,"parton":14029,"Ġvolu":14030,"etz":14031,"orie":14032,"Ġeksterlanda":14033,"Ġnubo":14034,"Ġraportojn":14035,"ĠserÄīante":14036,"ĠFoiro":14037,"ĠKuvaj":14038,"ĠJung":14039,"Ġokazonta":14040,"ĠdevenaÄµon":14041,"Ġneologis":14042,"lovskij":14043,"tti":14044,"Ġ^":14045,"Ġrezi":14046,"Ġarticle":14047,"Ġpenas":14048,"ĠProdu":14049,"brajn":14050,"Ġkardina":14051,"Ġ1935":14052,"Ġkarakterizas":14053,"Ġekstrem":14054,"Ġplezur":14055,"ĠHomaj":14056,"tiÄĿos":14057,"ast":14058,"Ġnepo":14059,"percaya":14060,"Ġgeno":14061,"uss":14062,"ĠGand":14063,"Ġkata":14064,"Ġkadu":14065,"Ġmaterio":14066,"rastruk":14067,"Ġrenask":14068,"Ġkroma":14069,"ĠaÅŃskultu":14070,"ĠSerge":14071,"Ġrimedon":14072,"esoto":14073,"ĠPolitiko":14074,"ĠPacifiko":14075,"dego":14076,"ĠÅĿpru":14077,"gantan":14078,"Ġvenen":14079,"Ġkodojn":14080,"burgio":14081,"ĠSupera":14082,"Ġminacas":14083,"Tag":14084,"wan":14085,"ĠApen":14086,"Ġsemoj":14087,"rue":14088,"ĠaÅŃdiÄĿis":14089,"ĠVila":14090,"Ġraci":14091,"ĠAlmenaÅŃ":14092,"cks":14093,"ÄĿisto":14094,"Ġteroris":14095,"Ġpartoprenanto":14096,"Ġbezonataj":14097,"Ġbov":14098,"ĠvoÄīdoni":14099,"Ġtrinkis":14100,"ĠLenin":14101,"forta":14102,"Ġdetala":14103,"titudo":14104,"ĠSauda":14105,"ĠLuis":14106,"intus":14107,"Ġ;)":14108,"Ġreprezentis":14109,"Ã¤r":14110,"ĠKultur":14111,"Ġmiraklo":14112,"Sinjoro":14113,"pton":14114,"Ġeste":14115,"ĠKub":14116,"ĠFind":14117,"Äīef":14118,"ĠMario":14119,"Ġfraton":14120,"Ġsciencan":14121,"ĠbuÄĿe":14122,"Ġkunlabore":14123,"Ġvastaj":14124,"ĠSudameriko":14125,"index":14126,"Ġsendependecon":14127,"ãĢĤ":14128,"Ġaus":14129,"Ġkonce":14130,"ĠÄĿerman":14131,"mantaj":14132,"Ġbonvena":14133,"ĠAna":14134,"Ġatingita":14135,"Ġknabon":14136,"Ġmetodojn":14137,"radik":14138,"ĠVojaÄĿo":14139,"Ġfilozofiaj":14140,"ĠGujano":14141,"Ġzonoj":14142,"Ġmalplej":14143,"Ġpertur":14144,"pec":14145,"Ġforbru":14146,"Tie":14147,"Ġutiligas":14148,"fonto":14149,"ĠNaturo":14150,"ĠFakoj":14151,"ĠburÄĿa":14152,"Ġreklamo":14153,"ĠFrakcioj":14154,"Ġbruna":14155,"Ġgratulas":14156,"Kri":14157,"Speci":14158,"Ġ..":14159,"Ġsumon":14160,"lir":14161,"Ġpensu":14162,"ĠUniversita":14163,"bando":14164,"interfaco":14165,"ĠvoÄīdonis":14166,"Ġintelekta":14167,"ĠFeliÄīe":14168,"Ġkami":14169,"iner":14170,"Ġai":14171,"Ġenten":14172,"Ġnevidebla":14173,"Ġkapa":14174,"Ġokazu":14175,"Ġindign":14176,"Ġ978":14177,"ĠÄµurnaloj":14178,"Ġlernolibroj":14179,"ĠSemajno":14180,"ĠChristian":14181,"ĠGubernio":14182,"VojaÄĿo":14183,"ukso":14184,"ĠsaÅŃ":14185,"cigo":14186,"esanco":14187,"Ġmitologio":14188,"ĠAzor":14189,"Ġsubskribo":14190,"ĠestiÄĿas":14191,"Ġbritoj":14192,"INO":14193,"Ekzemple":14194,"Ġposedo":14195,"Ġteorie":14196,"Ġkombino":14197,"ĠPapuo":14198,"Ġestanta":14199,"Ġens":14200,"Ġneesperan":14201,"ĠDoro":14202,"Ġaliigas":14203,"cadon":14204,"Ġtiea":14205,"ĠÅ»":14206,"ĠMaksi":14207,"neÅŃtra":14208,"ĠÄĿojis":14209,"Ġkvadrataj":14210,"è¡ĢèĺĩæľĪè¡ĢèĺĩæľĪè¡ĢèĺĩæľĪè¡ĢèĺĩæľĪ":14211,"Ġguberniestro":14212,"mel":14213,"Ġq":14214,"Äµenkov":14215,"ĠÅĿaÅŃ":14216,"ĠNATO":14217,"gaÄµo":14218,"Ġversoj":14219,"ĠKiuj":14220,"Ġdispono":14221,"ceno":14222,"cenco":14223,"Ġdonante":14224,"ĠEÅŃropaj":14225,"Ġerare":14226,"Ġaprobo":14227,"Ġaktivulo":14228,"ĠfraÅŃlino":14229,"Ġnegoco":14230,"ĠZambio":14231,"Ġgitaro":14232,"rho":14233,"lema":14234,"ĠLF":14235,"Ġkonton":14236,"ĠBala":14237,"illa":14238,"Ġlokajn":14239,"Ġsuperi":14240,"Ġvarmarko":14241,"Ġprava":14242,"Ġreagoj":14243,"Ġrealigis":14244,"Ġgrekaj":14245,"ĠPiron":14246,"Ġkonversaci":14247,"Ġblazono":14248,"Ġalkoholo":14249,"ĠÅľanhajo":14250,"blon":14251,"ciita":14252,"tuko":14253,"Ġ72":14254,"Ġkonsidero":14255,"Ġ1500":14256,"Ġvidpunktoj":14257,"Ġimpostoj":14258,"liÄĿi":14259,"reo":14260,"ĠHere":14261,"Ġ1915":14262,"Ġpavi":14263,"Ġposttagme":14264,"Ġcertigas":14265,"Ġerara":14266,"Ġestraron":14267,"Ġdifinis":14268,"ĠAmerican":14269,"ĠKristnasko":14270,"klandoj":14271,"landajn":14272,"Ġrabo":14273,"ksido":14274,"ĠKonstru":14275,"Ġcilin":14276,"Ġfone":14277,"ĠAlt":14278,"Ġmultekosta":14279,"ect":14280,"ĠÄĪefe":14281,"Ġkunlaborado":14282,"ĠTopo":14283,"ĠBonvenon":14284,"Ġfilozofia":14285,
[...]
